{
  "version": "1.0",
  "truncation": null,
  "padding": null,
  "added_tokens": [
    {
      "id": 0,
      "content": "<|endoftext|>",
      "single_word": false,
      "lstrip": false,
      "rstrip": false,
      "normalized": false,
      "special": true
    }
  ],
  "normalizer": null,
  "pre_tokenizer": {
    "type": "ByteLevel",
    "add_prefix_space": false,
    "trim_offsets": true,
    "use_regex": true
  },
  "post_processor": null,
  "decoder": {
    "type": "ByteLevel",
    "add_prefix_space": true,
    "trim_offsets": true,
    "use_regex": true
  },
  "model": {
    "type": "BPE",
    "dropout": null,
    "unk_token": null,
    "continuing_subword_prefix": null,
    "end_of_word_suffix": null,
    "fuse_unk": false,
    "byte_fallback": false,
    "ignore_merges": false,
    "vocab": {
      "<|endoftext|>": 0,
      "!": 1,
      "\"": 2,
      "#": 3,
      "$": 4,
      "%": 5,
      "&": 6,
      "'": 7,
      "(": 8,
      ")": 9,
      "*": 10,
      "+": 11,
      ",": 12,
      "-": 13,
      ".": 14,
      "/": 15,
      "0": 16,
      "1": 17,
      "2": 18,
      "3": 19,
      "4": 20,
      "5": 21,
      "6": 22,
      "7": 23,
      "8": 24,
      "9": 25,
      ":": 26,
      ";": 27,
      "<": 28,
      "=": 29,
      ">": 30,
      "?": 31,
      "@": 32,
      "A": 33,
      "B": 34,
      "C": 35,
      "D": 36,
      "E": 37,
      "F": 38,
      "G": 39,
      "H": 40,
      "I": 41,
      "J": 42,
      "K": 43,
      "L": 44,
      "M": 45,
      "N": 46,
      "O": 47,
      "P": 48,
      "Q": 49,
      "R": 50,
      "S": 51,
      "T": 52,
      "U": 53,
      "V": 54,
      "W": 55,
      "X": 56,
      "Y": 57,
      "Z": 58,
      "[": 59,
      "\\": 60,
      "]": 61,
      "^": 62,
      "_": 63,
      "`": 64,
      "a": 65,
      "b": 66,
      "c": 67,
      "d": 68,
      "e": 69,
      "f": 70,
      "g": 71,
      "h": 72,
      "i": 73,
      "j": 74,
      "k": 75,
      "l": 76,
      "m": 77,
      "n": 78,
      "o": 79,
      "p": 80,
      "q": 81,
      "r": 82,
      "s": 83,
      "t": 84,
      "u": 85,
      "v": 86,
      "w": 87,
      "x": 88,
      "y": 89,
      "z": 90,
      "|": 91,
      "}": 92,
      "~": 93,
      "¡": 94,
      "¢": 95,
      "£": 96,
      "¤": 97,
      "¥": 98,
      "¦": 99,
      "§": 100,
      "¨": 101,
      "©": 102,
      "ª": 103,
      "«": 104,
      "¬": 105,
      "®": 106,
      "¯": 107,
      "°": 108,
      "±": 109,
      "²": 110,
      "³": 111,
      "´": 112,
      "µ": 113,
      "¶": 114,
      "·": 115,
      "¸": 116,
      "¹": 117,
      "º": 118,
      "»": 119,
      "¼": 120,
      "½": 121,
      "¾": 122,
      "¿": 123,
      "Â": 124,
      "Ã": 125,
      "Ä": 126,
      "Å": 127,
      "Æ": 128,
      "Ç": 129,
      "È": 130,
      "É": 131,
      "Ê": 132,
      "Ë": 133,
      "Ì": 134,
      "Í": 135,
      "Î": 136,
      "Ï": 137,
      "Ð": 138,
      "Ñ": 139,
      "Ò": 140,
      "Ó": 141,
      "Ô": 142,
      "Õ": 143,
      "Ö": 144,
      "×": 145,
      "Ø": 146,
      "Ù": 147,
      "Ú": 148,
      "Û": 149,
      "Ü": 150,
      "Ý": 151,
      "Þ": 152,
      "ß": 153,
      "à": 154,
      "á": 155,
      "â": 156,
      "ã": 157,
      "ä": 158,
      "å": 159,
      "æ": 160,
      "ç": 161,
      "è": 162,
      "é": 163,
      "ê": 164,
      "ë": 165,
      "ì": 166,
      "í": 167,
      "ï": 168,
      "ð": 169,
      "ĉ": 170,
      "Ċ": 171,
      "Ġ": 172,
      "Ģ": 173,
      "ģ": 174,
      "Ĥ": 175,
      "ĥ": 176,
      "Ħ": 177,
      "ħ": 178,
      "Ĩ": 179,
      "ĩ": 180,
      "Ī": 181,
      "ī": 182,
      "Ĭ": 183,
      "ĭ": 184,
      "Į": 185,
      "į": 186,
      "İ": 187,
      "ı": 188,
      "Ĳ": 189,
      "ĳ": 190,
      "Ĵ": 191,
      "ĵ": 192,
      "Ķ": 193,
      "ķ": 194,
      "ĸ": 195,
      "Ĺ": 196,
      "ĺ": 197,
      "Ļ": 198,
      "ļ": 199,
      "Ľ": 200,
      "ľ": 201,
      "Ŀ": 202,
      "ŀ": 203,
      "Ł": 204,
      "ł": 205,
      "Ń": 206,
      "Ġt": 207,
      "Ġa": 208,
      "he": 209,
      "in": 210,
      "re": 211,
      "Ġthe": 212,
      "on": 213,
      "er": 214,
      "Ġo": 215,
      "at": 216,
      "Ġs": 217,
      "en": 218,
      "Ġc": 219,
      "es": 220,
      "Ġw": 221,
      "is": 222,
      "nd": 223,
      "or": 224,
      "it": 225,
      "Ġp": 226,
      "al": 227,
      "ed": 228,
      "Ġof": 229,
      "Ġb": 230,
      "an": 231,
      "Ġf": 232,
      "Ġin": 233,
      "ar": 234,
      "ing": 235,
      "ou": 236,
      "Ġm": 237,
      "ic": 238,
      "Ġand": 239,
      "Ġto": 240,
      "ion": 241,
      "Ġd": 242,
      "ro": 243,
      "le": 244,
      "as": 245,
      "Ġh": 246,
      "ent": 247,
      "Ġth": 248,
      "ct": 249,
      "il": 250,
      "Ġe": 251,
      "Ġre": 252,
      "om": 253,
      "st": 254,
      "Ġn": 255,
      "Ġl": 256,
      "ve": 257,
      "ly": 258,
      "Ġbe": 259,
      "ĠT": 260,
      "Ġis": 261,
      "ol": 262,
      "se": 263,
      "ation": 264,
      "Ġg": 265,
      "id": 266,
      "im": 267,
      "ce": 268,
      "ut": 269,
      "ĠA": 270,
      "et": 271,
      "ra": 272,
      "ot": 273,
      "ur": 274,
      "ch": 275,
      "ĠS": 276,
      "Ġfor": 277,
      "ow": 278,
      "ig": 279,
      "ĠC": 280,
      "Ġon": 281,
      "Ġthat": 282,
      "Ġu": 283,
      "ver": 284,
      "âĢ": 285,
      "ĠI": 286,
      "Ġst": 287,
      "ir": 288,
      "am": 289,
      "ul": 290,
      "ay": 291,
      "el": 292,
      "ad": 293,
      "Ġas": 294,
      "her": 295,
      "ith": 296,
      "Ġpro": 297,
      "Ġcon": 298,
      "Ġy": 299,
      "Ġ1": 300,
      "ĠM": 301,
      "Ġ(": 302,
      "Ġan": 303,
      "Ġare": 304,
      "Ġwith": 305,
      "Ġwh": 306,
      "ter": 307,
      "Ġor": 308,
      "if": 309,
      "ĠP": 310,
      "ĠThe": 311,
      "Ġit": 312,
      "Ġal": 313,
      "od": 314,
      "ment": 315,
      "th": 316,
      "ist": 317,
      "ge": 318,
      "op": 319,
      "ĠB": 320,
      "ate": 321,
      "ers": 322,
      "Ġde": 323,
      "ies": 324,
      "ab": 325,
      "ill": 326,
      "us": 327,
      "ere": 328,
      "ĠH": 329,
      "Ġhe": 330,
      "Ġex": 331,
      "res": 332,
      "um": 333,
      "Ġby": 334,
      "ect": 335,
      "ess": 336,
      "est": 337,
      "rom": 338,
      "Ġcom": 339,
      "ity": 340,
      "ore": 341,
      "Ġyou": 342,
      "and": 343,
      "os": 344,
      "ld": 345,
      "ac": 346,
      "Ġsu": 347,
      "ri": 348,
      "Ġat": 349,
      "ĠW": 350,
      "em": 351,
      "Ġwas": 352,
      "Ġv": 353,
      "ĠD": 354,
      "ĠR": 355,
      "ĠE": 356,
      "ive": 357,
      "nt": 358,
      "qu": 359,
      "ain": 360,
      "ant": 361,
      "Ġfrom": 362,
      "igh": 363,
      "pp": 364,
      "ĠF": 365,
      "ke": 366,
      "ud": 367,
      "Ġha": 368,
      "Ġ2": 369,
      "ĠN": 370,
      "ci": 371,
      "ort": 372,
      "iv": 373,
      "Ġse": 374,
      "Ġch": 375,
      "Ġne": 376,
      "ĠG": 377,
      "Ġr": 378,
      "00": 379,
      "Ġnot": 380,
      "ĠL": 381,
      "ical": 382,
      "un": 383,
      "ure": 384,
      "art": 385,
      "Ġcan": 386,
      "Ġhave": 387,
      "og": 388,
      "Ġle": 389,
      "Ġsp": 390,
      "Ġsh": 391,
      "ich": 392,
      "all": 393,
      "Ġen": 394,
      "ight": 395,
      "Ġthis": 396,
      "âĢĻ": 397,
      "pt": 398,
      "ther": 399,
      "'s": 400,
      "rou": 401,
      "The": 402,
      "ould": 403,
      "Ġab": 404,
      "our": 405,
      "gh": 406,
      "ated": 407,
      "ost": 408,
      "ions": 409,
      "ĠJ": 410,
      "ear": 411,
      "Ġwor": 412,
      "ome": 413,
      "oc": 414,
      "ine": 415,
      "ĠO": 416,
      "du": 417,
      "ag": 418,
      "ard": 419,
      "ĠU": 420,
      "out": 421,
      "Ġwe": 422,
      "ast": 423,
      "per": 424,
      "ell": 425,
      "ff": 426,
      "ans": 427,
      "Ġim": 428,
      "Ġpl": 429,
      "Ġus": 430,
      "Ġint": 431,
      "Ġwhich": 432,
      "pl": 433,
      "ĠâĢ": 434,
      "act": 435,
      "Ġtheir": 436,
      "Ġ\"": 437,
      "ew": 438,
      "age": 439,
      "ĠIn": 440,
      "ust": 441,
      "ally": 442,
      "ous": 443,
      "so": 444,
      "ak": 445,
      "are": 446,
      "ide": 447,
      "iz": 448,
      "Ġk": 449,
      "Ġcont": 450,
      "ap": 451,
      "Ġwhe": 452,
      "ib": 453,
      "ary": 454,
      "Ġ19": 455,
      "cc": 456,
      "ia": 457,
      "ong": 458,
      "Ġall": 459,
      "Ġthey": 460,
      "end": 461,
      "Ġad": 462,
      "ult": 463,
      "Ġdis": 464,
      "Ġinc": 465,
      "ru": 466,
      "ations": 467,
      "ood": 468,
      "Ġso": 469,
      "Ġres": 470,
      "orm": 471,
      "Ġhas": 472,
      "vel": 473,
      "Ġmore": 474,
      "Ġwere": 475,
      "Ġwill": 476,
      "Ġcomp": 477,
      "ater": 478,
      "ire": 479,
      "Ġother": 480,
      "ence": 481,
      "Ġdo": 482,
      "Ġbut": 483,
      "Ġcl": 484,
      "ec": 485,
      "Ġper": 486,
      "ild": 487,
      "able": 488,
      "Ġman": 489,
      "ks": 490,
      "ry": 491,
      "ĠTh": 492,
      "ial": 493,
      "ip": 494,
      "Ġone": 495,
      "ind": 496,
      "ose": 497,
      "ber": 498,
      "ĠSt": 499,
      "Ġhis": 500,
      "ep": 501,
      "ass": 502,
      "ance": 503,
      "Ġme": 504,
      "ach": 505,
      "ign": 506,
      "ents": 507,
      "au": 508,
      "av": 509,
      "ress": 510,
      "ase": 511,
      "Ġar": 512,
      "reat": 513,
      "Ġun": 514,
      "ish": 515,
      "ction": 516,
      "ord": 517,
      "Ġte": 518,
      ").": 519,
      "Ġyour": 520,
      "ice": 521,
      "ory": 522,
      "ition": 523,
      "Ġalso": 524,
      "ub": 525,
      "ount": 526,
      "ame": 527,
      "ace": 528,
      "Ġpart": 529,
      "Ġwho": 530,
      "Ġpre": 531,
      "Ġimp": 532,
      "Ġapp": 533,
      "Ġj": 534,
      "âĢĿ": 535,
      "Ġev": 536,
      "mer": 537,
      "Ġout": 538,
      "ens": 539,
      "Ġinf": 540,
      "one": 541,
      "Ġabout": 542,
      "ĠK": 543,
      "ake": 544,
      "ok": 545,
      "ime": 546,
      "very": 547,
      "Ġstud": 548,
      "ite": 549,
      "ound": 550,
      "ack": 551,
      "olog": 552,
      "ree": 553,
      "ors": 554,
      "ces": 555,
      "Ġmay": 556,
      "ian": 557,
      "Ġthan": 558,
      "ĠCh": 559,
      "ric": 560,
      "Ġsy": 561,
      "Ġyear": 562,
      "ang": 563,
      "Ġpe": 564,
      "ates": 565,
      "ue": 566,
      "ie": 567,
      "Ġbeen": 568,
      "Ġup": 569,
      "Ġbec": 570,
      "Ġcomm": 571,
      "low": 572,
      "now": 573,
      "Ġits": 574,
      "vers": 575,
      "erv": 576,
      "Ġthem": 577,
      "Ġhad": 578,
      "Ġag": 579,
      "ail": 580,
      "ph": 581,
      "ile": 582,
      "ays": 583,
      "Ġrec": 584,
      "ike": 585,
      "Ġsome": 586,
      "ĠâĢľ": 587,
      "ĠV": 588,
      "Ġqu": 589,
      "ough": 590,
      "ĠIt": 591,
      "nder": 592,
      "ons": 593,
      "pe": 594,
      "Ġthere": 595,
      "ings": 596,
      "Ġinto": 597,
      "Ġra": 598,
      "ople": 599,
      "tern": 600,
      "Ġgo": 601,
      "iff": 602,
      "lud": 603,
      "Ġ3": 604,
      "rit": 605,
      "ond": 606,
      "ren": 607,
      "Ġwhen": 608,
      "ual": 609,
      "Ġsa": 610,
      "Ġover": 611,
      "ms": 612,
      "Ġtra": 613,
      "lic": 614,
      "Ġ-": 615,
      "ational": 616,
      "Ġ200": 617,
      "ll": 618,
      "Ġthese": 619,
      "irst": 620,
      "Ġwould": 621,
      "rough": 622,
      "int": 623,
      "Ġtw": 624,
      "Ġcol": 625,
      "Ġtime": 626,
      "red": 627,
      "ject": 628,
      "te": 629,
      "ove": 630,
      "ific": 631,
      "Ġnew": 632,
      "ause": 633,
      "Ġcons": 634,
      "lect": 635,
      "Ġwork": 636,
      "Ġro": 637,
      "ĠUn": 638,
      "Ġmost": 639,
      "ments": 640,
      "hed": 641,
      "Ġdes": 642,
      "Ġpeople": 643,
      "ys": 644,
      "Ġuse": 645,
      "Ġgen": 646,
      "we": 647,
      "Ġunder": 648,
      "Ġbl": 649,
      "ĠThis": 650,
      "Ġbet": 651,
      "les": 652,
      "ities": 653,
      "),": 654,
      "Ġact": 655,
      "velop": 656,
      "Ġsuch": 657,
      "Ġhow": 658,
      "Ġacc": 659,
      "Ġdiff": 660,
      "stem": 661,
      "row": 662,
      "Ġrel": 663,
      "Ġno": 664,
      "ook": 665,
      "ĠY": 666,
      "Ġrep": 667,
      "Ġknow": 668,
      "Ġinclud": 669,
      "ple": 670,
      "Ġ20": 671,
      "Ġonly": 672,
      "ced": 673,
      "Ġtr": 674,
      "alth": 675,
      "Ġfirst": 676,
      "Ġany": 677,
      "Ġif": 678,
      "ious": 679,
      "Ġeff": 680,
      "ob": 681,
      "ning": 682,
      "Ġoff": 683,
      "Ġlike": 684,
      "ool": 685,
      "ative": 686,
      "iss": 687,
      "ov": 688,
      "Ġprov": 689,
      "Ġchild": 690,
      "cial": 691,
      "Ġph": 692,
      "fter": 693,
      "Ġtwo": 694,
      "rib": 695,
      "ular": 696,
      "Ġam": 697,
      "Ġind": 698,
      "erm": 699,
      "ied": 700,
      "Ġour": 701,
      "Ġprodu": 702,
      "Ġused": 703,
      "ath": 704,
      "ark": 705,
      "Ġdevelop": 706,
      "Ġmany": 707,
      "ĠHe": 708,
      "ating": 709,
      "Ġob": 710,
      "ics": 711,
      "Ġreg": 712,
      "Ġwhat": 713,
      "cess": 714,
      "Ġexp": 715,
      "ise": 716,
      "oss": 717,
      "Ġsc": 718,
      "ts": 719,
      "Ġthrough": 720,
      "uc": 721,
      "Ġpo": 722,
      "als": 723,
      "Ġneed": 724,
      "ne": 725,
      "uring": 726,
      "arch": 727,
      "Ġsur": 728,
      "old": 729,
      "round": 730,
      "aw": 731,
      "Ġsystem": 732,
      "Ġyears": 733,
      "Ġac": 734,
      "ble": 735,
      "Ġfe": 736,
      "meric": 737,
      "Ġpr": 738,
      "Ġem": 739,
      "Ġatt": 740,
      "ram": 741,
      "Ġdec": 742,
      "ng": 743,
      "oth": 744,
      "Ġsub": 745,
      "..": 746,
      "hen": 747,
      "cy": 748,
      "Ġ4": 749,
      "ution": 750,
      "ited": 751,
      "ert": 752,
      "ased": 753,
      "ures": 754,
      "Ġfl": 755,
      "ink": 756,
      "ange": 757,
      "ible": 758,
      "ten": 759,
      "ful": 760,
      "Ġco": 761,
      "ade": 762,
      "ower": 763,
      "land": 764,
      "In": 765,
      "Ġadd": 766,
      "ife": 767,
      "Ġrem": 768,
      "ility": 769,
      "gan": 770,
      "Ġpres": 771,
      "Ġ18": 772,
      "ween": 773,
      "fore": 774,
      "eth": 775,
      "Ġhel": 776,
      "sel": 777,
      "Ġ5": 778,
      "Ġsupp": 779,
      "ists": 780,
      "own": 781,
      "Ġshould": 782,
      "Ġcould": 783,
      "ered": 784,
      "Ġinv": 785,
      "Ġwater": 786,
      "Ġrese": 787,
      "ĠAmeric": 788,
      "hes": 789,
      "Ġdiffere": 790,
      "ivers": 791,
      "Ġear": 792,
      "uch": 793,
      "Ġbetween": 794,
      "ormation": 795,
      "Ġsm": 796,
      "Ġhelp": 797,
      "wn": 798,
      "ology": 799,
      "ĠAs": 800,
      "Ġwell": 801,
      "ident": 802,
      "Ġsaid": 803,
      "xt": 804,
      "ract": 805,
      "ily": 806,
      "Ġpol": 807,
      "chool": 808,
      "ont": 809,
      "Ġform": 810,
      "Ġwhere": 811,
      "ural": 812,
      "Ġhigh": 813,
      "Ġnum": 814,
      "Ġspec": 815,
      "ick": 816,
      "its": 817,
      "ever": 818,
      "Ġfound": 819,
      "Ġtrans": 820,
      "Ġlar": 821,
      "ants": 822,
      "ines": 823,
      "Ġcent": 824,
      "ict": 825,
      "Ġinst": 826,
      "Ġinter": 827,
      "ft": 828,
      "Ġdi": 829,
      "Ġher": 830,
      "Ġmod": 831,
      "ins": 832,
      "Ġafter": 833,
      "ism": 834,
      "Ġbu": 835,
      "Ġref": 836,
      ".\"": 837,
      "Ġpub": 838,
      "Ġcount": 839,
      "cer": 840,
      "Ġed": 841,
      "urn": 842,
      "ually": 843,
      "chn": 844,
      "gy": 845,
      "ved": 846,
      "Ġpers": 847,
      "Ġcall": 848,
      "cept": 849,
      "iew": 850,
      "Ġprog": 851,
      "ef": 852,
      "eral": 853,
      "Ġlong": 854,
      "Ġ201": 855,
      "cent": 856,
      "ĠPro": 857,
      "Ġexam": 858,
      "itt": 859,
      "ature": 860,
      "vern": 861,
      "ps": 862,
      "Ġthose": 863,
      "other": 864,
      "Ġbecause": 865,
      "Ġdet": 866,
      "Ġthen": 867,
      "vent": 868,
      "Ġcar": 869,
      "omm": 870,
      "Ġworld": 871,
      "Ġvery": 872,
      "Ġsim": 873,
      "oy": 874,
      "the": 875,
      "Ġmake": 876,
      "Ġeffect": 877,
      "Th": 878,
      "Ġhum": 879,
      "Ġhealth": 880,
      "Ġimport": 881,
      "Ġext": 882,
      "Ġincre": 883,
      "Ġinformation": 884,
      "Ġeven": 885,
      "ollow": 886,
      "Ġmed": 887,
      "Ġdisc": 888,
      "ness": 889,
      "ĠAl": 890,
      "Ġjust": 891,
      "ically": 892,
      "Ġsee": 893,
      "Ġloc": 894,
      "ds": 895,
      "Ġget": 896,
      "Ġresp": 897,
      "ork": 898,
      "get": 899,
      "Ġty": 900,
      "Ġdist": 901,
      "Ġsign": 902,
      "ather": 903,
      "19": 904,
      "Ġgra": 905,
      "led": 906,
      "Ġsci": 907,
      "arm": 908,
      "Ġsec": 909,
      "Ġdef": 910,
      "Ġresult": 911,
      "ata": 912,
      "ĠNew": 913,
      "Ġpartic": 914,
      "Ġeach": 915,
      "ues": 916,
      "Ġass": 917,
      "Ġmon": 918,
      "ives": 919,
      "iversity": 920,
      "ck": 921,
      "||": 922,
      "Ġvar": 923,
      "ases": 924,
      "ages": 925,
      "Ġspe": 926,
      "Ġ6": 927,
      "ety": 928,
      "Ġpat": 929,
      "Ġset": 930,
      "Ġway": 931,
      "Ġdifferent": 932,
      "Ġent": 933,
      "iron": 934,
      "Ġchildren": 935,
      "Ġfact": 936,
      "orn": 937,
      "ĠWh": 938,
      "Ġca": 939,
      "ized": 940,
      "Ġbeing": 941,
      "Ġexper": 942,
      "Ġmade": 943,
      "aking": 944,
      "imes": 945,
      ".,": 946,
      "Ġmuch": 947,
      "ros": 948,
      "ĠRe": 949,
      "Ġshe": 950,
      "ĠAr": 951,
      "Ġduring": 952,
      "ex": 953,
      "Ġrequ": 954,
      "Ġfam": 955,
      "ward": 956,
      "Ġsame": 957,
      "Ġright": 958,
      "000": 959,
      "und": 960,
      "Ġfollow": 961,
      "Ġaut": 962,
      "Ġdep": 963,
      "onom": 964,
      "ruct": 965,
      "Ġart": 966,
      "ĠWe": 967,
      "Ġstudy": 968,
      "ection": 969,
      "Ġke": 970,
      "Ġevery": 971,
      "Ġ199": 972,
      "ished": 973,
      "any": 974,
      "Ġown": 975,
      "iel": 976,
      "ince": 977,
      "Ġcommun": 978,
      "gg": 979,
      "ale": 980,
      "ars": 981,
      "Ġhist": 982,
      "ty": 983,
      "Ġlife": 984,
      "Ġgrou": 985,
      ",\"": 986,
      "ĠAn": 987,
      "Ġtechn": 988,
      "Ġpop": 989,
      "Ġend": 990,
      "Ġhim": 991,
      "Ġcre": 992,
      "ĠFor": 993,
      "io": 994,
      "Ġprocess": 995,
      "Ġstate": 996,
      "Ġproble": 997,
      "Ġsmall": 998,
      "Ġav": 999,
      "Ġschool": 1000,
      "Ġmy": 1001,
      "Ġlevel": 1002,
      "ined": 1003,
      "hem": 1004,
      "Ġtest": 1005,
      "Ġagain": 1006,
      "Ġboth": 1007,
      "ices": 1008,
      "Ġlead": 1009,
      "hip": 1010,
      "'t": 1011,
      "Ġcur": 1012,
      "omen": 1013,
      "Ġfind": 1014,
      "Ġocc": 1015,
      "Ġread": 1016,
      "oh": 1017,
      "ody": 1018,
      "Ġbefore": 1019,
      "ix": 1020,
      "Ġdoes": 1021,
      "ran": 1022,
      "ute": 1023,
      "ize": 1024,
      "read": 1025,
      "ĠThey": 1026,
      "ury": 1027,
      "ting": 1028,
      "Ġshow": 1029,
      "viron": 1030,
      "Ġappro": 1031,
      "irect": 1032,
      "Ġmin": 1033,
      "ah": 1034,
      "nce": 1035,
      "Ġnow": 1036,
      "inal": 1037,
      "Ġback": 1038,
      "imate": 1039,
      "Ġlear": 1040,
      "Ġexpl": 1041,
      "Ġimportant": 1042,
      "rol": 1043,
      "ĠâĢĵ": 1044,
      "ax": 1045,
      "ock": 1046,
      "ergy": 1047,
      "ven": 1048,
      "ĠIf": 1049,
      "ral": 1050,
      "Ġec": 1051,
      "Ġstudents": 1052,
      "Ġnumber": 1053,
      "Ġgovern": 1054,
      "Ġins": 1055,
      "form": 1056,
      "Ġmem": 1057,
      "Ġstr": 1058,
      "ĠInd": 1059,
      "Ġbo": 1060,
      "Ġfood": 1061,
      "Ġest": 1062,
      "Ġgrow": 1063,
      "Ġcomple": 1064,
      "ient": 1065,
      "Ġgl": 1066,
      "Ġreport": 1067,
      "hers": 1068,
      "Ġ10": 1069,
      "âĢĶ": 1070,
      "Ġthree": 1071,
      "ters": 1072,
      "Ġresearch": 1073,
      "Ġtreat": 1074,
      "Ġposs": 1075,
      "ier": 1076,
      "Ġserv": 1077,
      "ides": 1078,
      "Ġless": 1079,
      "ands": 1080,
      "ected": 1081,
      "Ġperson": 1082,
      "air": 1083,
      "Ġgood": 1084,
      "der": 1085,
      "Ġ7": 1086,
      "ulation": 1087,
      "ving": 1088,
      "Ġpower": 1089,
      "Ġoften": 1090,
      "Ġval": 1091,
      ".âĢĿ": 1092,
      "Ġdise": 1093,
      "Ġcell": 1094,
      "Ġsk": 1095,
      "cl": 1096,
      "ves": 1097,
      "Ġdata": 1098,
      "up": 1099,
      "vironment": 1100,
      "ivid": 1101,
      "aj": 1102,
      "Ġmust": 1103,
      "Ġprot": 1104,
      "outh": 1105,
      "Ġlarge": 1106,
      "Ġchar": 1107,
      "Ġorgan": 1108,
      "ĠBut": 1109,
      "Ġbel": 1110,
      "Ġhuman": 1111,
      "ĠSp": 1112,
      "Ġdid": 1113,
      "Ġ8": 1114,
      "ger": 1115,
      "ave": 1116,
      "rent": 1117,
      "uss": 1118,
      "Ġday": 1119,
      "Ġris": 1120,
      "ains": 1121,
      "Ġcalled": 1122,
      "Ġvis": 1123,
      "Ġwhile": 1124,
      "ouse": 1125,
      "Ġconf": 1126,
      "Ġpublic": 1127,
      "ĠIs": 1128,
      "Ġelect": 1129,
      "Ġmain": 1130,
      "gen": 1131,
      "ĠUniversity": 1132,
      "Ġplan": 1133,
      "Ġser": 1134,
      "ron": 1135,
      "ash": 1136,
      "Ġusing": 1137,
      "ality": 1138,
      "ĠHow": 1139,
      "ton": 1140,
      "Ġdesign": 1141,
      "Ġcontin": 1142,
      "ĠSe": 1143,
      "Ġret": 1144,
      "akes": 1145,
      "Ġdown": 1146,
      "day": 1147,
      "ĠAmerican": 1148,
      "Ġpoint": 1149,
      "dition": 1150,
      "Ġclass": 1151,
      "Ġgener": 1152,
      "Ġgreat": 1153,
      "Ġ9": 1154,
      "Ġsol": 1155,
      "ull": 1156,
      "Ġtake": 1157,
      "Ġsupport": 1158,
      "man": 1159,
      "iqu": 1160,
      "com": 1161,
      "ared": 1162,
      "self": 1163,
      "itions": 1164,
      "Ġactiv": 1165,
      "orth": 1166,
      "ital": 1167,
      "Ġincluding": 1168,
      "This": 1169,
      "osed": 1170,
      "stand": 1171,
      "ring": 1172,
      "Ġcommon": 1173,
      "stit": 1174,
      "Ġconsid": 1175,
      "bers": 1176,
      "raph": 1177,
      "way": 1178,
      "ĠDe": 1179,
      "Ġop": 1180,
      "Ġthough": 1181,
      "Ġredu": 1182,
      "Ġexample": 1183,
      "Ġaround": 1184,
      "ional": 1185,
      "Ġcle": 1186,
      "Ġfun": 1187,
      "Ġcor": 1188,
      "Ġknown": 1189,
      "aterial": 1190,
      "oun": 1191,
      "10": 1192,
      "iod": 1193,
      "illion": 1194,
      "de": 1195,
      "soci": 1196,
      "Ġequ": 1197,
      "Ġcour": 1198,
      "reen": 1199,
      "acter": 1200,
      "ted": 1201,
      "ross": 1202,
      "ources": 1203,
      "ĠAnd": 1204,
      "Ġmet": 1205,
      "ians": 1206,
      "ĠSo": 1207,
      "Ġlook": 1208,
      "eg": 1209,
      "ium": 1210,
      "els": 1211,
      "lish": 1212,
      "ries": 1213,
      "ired": 1214,
      "Ġadv": 1215,
      "Ġaff": 1216,
      "Ġcare": 1217,
      "Ġbody": 1218,
      "Ġstill": 1219,
      "ĠCon": 1220,
      "Ġpercent": 1221,
      "Ġdirect": 1222,
      "Wh": 1223,
      "Ġeduc": 1224,
      "Ġmat": 1225,
      "ĠRes": 1226,
      "rain": 1227,
      "ĠEng": 1228,
      "Ġpresent": 1229,
      "ĠUnited": 1230,
      "ained": 1231,
      "20": 1232,
      "Ġwrit": 1233,
      "Ġfew": 1234,
      "rop": 1235,
      "Ġallow": 1236,
      "Ġlaw": 1237,
      "ration": 1238,
      "ug": 1239,
      "Ġbuild": 1240,
      "ĠPh": 1241,
      "agn": 1242,
      "Ġgovernment": 1243,
      "Ġplace": 1244,
      "Ġsl": 1245,
      "ination": 1246,
      "iven": 1247,
      "to": 1248,
      "ense": 1249,
      "Ġsom": 1250,
      "iving": 1251,
      "Ġquest": 1252,
      "lished": 1253,
      "ission": 1254,
      "ets": 1255,
      "ield": 1256,
      "erest": 1257,
      "ization": 1258,
      "ĠThere": 1259,
      "Ġdem": 1260,
      "Ġgu": 1261,
      "ajor": 1262,
      "Ġmight": 1263,
      "ason": 1264,
      "ior": 1265,
      "Ġarea": 1266,
      "Ġchang": 1267,
      "Ġair": 1268,
      "Ġmil": 1269,
      "ris": 1270,
      "ording": 1271,
      "Ġstart": 1272,
      "Ġenergy": 1273,
      "hor": 1274,
      "oms": 1275,
      "Ġwithin": 1276,
      "ified": 1277,
      "Ġlight": 1278,
      "Ġcap": 1279,
      "Ġsays": 1280,
      "Ġwar": 1281,
      "Ġtem": 1282,
      "Ġprogram": 1283,
      "ividual": 1284,
      "Ġproject": 1285,
      "uro": 1286,
      "rist": 1287,
      "Ġwithout": 1288,
      "Ġmaterial": 1289,
      "Ġdesc": 1290,
      "ertain": 1291,
      "Ġpass": 1292,
      "ien": 1293,
      "Ġwomen": 1294,
      "Ġanother": 1295,
      "Ġdisease": 1296,
      "Ġscient": 1297,
      "ner": 1298,
      "Ġstand": 1299,
      "ids": 1300,
      "ological": 1301,
      "ĠCol": 1302,
      "ĠStates": 1303,
      "Ġcaus": 1304,
      "Ġdevelopment": 1305,
      "Ġpur": 1306,
      "Ġland": 1307,
      "Ġbeh": 1308,
      "Ġiss": 1309,
      "arent": 1310,
      "less": 1311,
      "arc": 1312,
      "az": 1313,
      "iver": 1314,
      "Ġenvironment": 1315,
      "ering": 1316,
      "Ġimm": 1317,
      "ption": 1318,
      "atural": 1319,
      ",âĢĿ": 1320,
      "Ġphys": 1321,
      "tt": 1322,
      "Ġmeas": 1323,
      "Ġnear": 1324,
      "ĠThese": 1325,
      "eng": 1326,
      "line": 1327,
      "here": 1328,
      "ision": 1329,
      "Ġearly": 1330,
      "ource": 1331,
      "Ġpract": 1332,
      "Ġchange": 1333,
      "Ġprof": 1334,
      "Ġide": 1335,
      "att": 1336,
      "angu": 1337,
      "Ġbelie": 1338,
      "Ġ[": 1339,
      "bs": 1340,
      "Ġthink": 1341,
      "Ġblood": 1342,
      "Ġlast": 1343,
      "Ġsever": 1344,
      "gin": 1345,
      "ograph": 1346,
      "ĠAd": 1347,
      "ĠNational": 1348,
      "Ġold": 1349,
      "Ġeconom": 1350,
      "Ġfore": 1351,
      "rodu": 1352,
      "atic": 1353,
      "Ġ'": 1354,
      "ived": 1355,
      "amp": 1356,
      "Ġagainst": 1357,
      "Ġbre": 1358,
      "ently": 1359,
      "ailable": 1360,
      "Ġ15": 1361,
      "Ġspecies": 1362,
      "Ġinclude": 1363,
      "Ġtyp": 1364,
      "Ġsecond": 1365,
      "Ġoper": 1366,
      "ww": 1367,
      "Ġleg": 1368,
      "ccess": 1369,
      "ern": 1370,
      "ĠSh": 1371,
      "Ġrest": 1372,
      "âĢĵ": 1373,
      "me": 1374,
      "Ġbas": 1375,
      "Ġindividual": 1376,
      "Ġoccur": 1377,
      "Ġeas": 1378,
      "Ġident": 1379,
      "Ġmajor": 1380,
      "Ġanim": 1381,
      "Ġsym": 1382,
      "osp": 1383,
      "Ġinterest": 1384,
      "view": 1385,
      "Ġhistory": 1386,
      "alk": 1387,
      "ites": 1388,
      "Ġmen": 1389,
      "ned": 1390,
      "use": 1391,
      "ĠCl": 1392,
      "Ġcontrol": 1393,
      "Ġant": 1394,
      "Ġter": 1395,
      "Ġ&": 1396,
      "Ġvari": 1397,
      "ats": 1398,
      "Ġve": 1399,
      "ik": 1400,
      "ĠCent": 1401,
      "Ġunderstand": 1402,
      "Ġeng": 1403,
      "Ġgroup": 1404,
      "ator": 1405,
      "lement": 1406,
      "itive": 1407,
      "Ġhand": 1408,
      "of": 1409,
      "Ġ17": 1410,
      "ential": 1411,
      "ĠComm": 1412,
      "ethod": 1413,
      "Ġunt": 1414,
      "ards": 1415,
      "Ġproduct": 1416,
      "Ġsay": 1417,
      "Ġseveral": 1418,
      "ote": 1419,
      "ina": 1420,
      "Ġlow": 1421,
      "Ġopp": 1422,
      "Ġhere": 1423,
      "Ġpos": 1424,
      "Ġorig": 1425,
      "Ġrisk": 1426,
      "Ġparticular": 1427,
      "Ġpar": 1428,
      "ĠYou": 1429,
      "Ġtre": 1430,
      "though": 1431,
      "Ġwant": 1432,
      "par": 1433,
      "Ġplay": 1434,
      "Ġhy": 1435,
      "Ġdon": 1436,
      "Ġcurrent": 1437,
      "Ġprop": 1438,
      "Ġmark": 1439,
      "Ġperiod": 1440,
      "lu": 1441,
      "Ġes": 1442,
      "ret": 1443,
      "ided": 1444,
      "It": 1445,
      "Ġsince": 1446,
      "Ġpot": 1447,
      "Ġamong": 1448,
      "olution": 1449,
      "ability": 1450,
      "ĠGod": 1451,
      "cing": 1452,
      "Ġcult": 1453,
      "Ġ.": 1454,
      "Ġfour": 1455,
      "Ġbecome": 1456,
      "ĠCan": 1457,
      "min": 1458,
      "abor": 1459,
      "ĠEn": 1460,
      "ames": 1461,
      "Ġconst": 1462,
      "ify": 1463,
      "idence": 1464,
      "Ġavailable": 1465,
      "ittle": 1466,
      "Ġimpro": 1467,
      "Ġfamily": 1468,
      "ead": 1469,
      "Ġmove": 1470,
      "icle": 1471,
      "ĠAt": 1472,
      "Ġhome": 1473,
      "Ġareas": 1474,
      "ĠâĢĶ": 1475,
      "ank": 1476,
      "âĢľ": 1477,
      "sy": 1478,
      "Ġmar": 1479,
      "Ġben": 1480,
      "ended": 1481,
      "Ġsocial": 1482,
      "ably": 1483,
      "...": 1484,
      "ining": 1485,
      "Ġproper": 1486,
      "Ġ0": 1487,
      "Ġname": 1488,
      "irc": 1489,
      "Ġnon": 1490,
      "ohn": 1491,
      "ĠZ": 1492,
      "Ġet": 1493,
      "Ġanal": 1494,
      "12": 1495,
      "Ġpri": 1496,
      "ole": 1497,
      "Ġorder": 1498,
      "Ġmus": 1499,
      "Ġreal": 1500,
      "Ġaddition": 1501,
      "Ġprovide": 1502,
      "ĠPl": 1503,
      "ĠEx": 1504,
      "Ġview": 1505,
      "Ġlim": 1506,
      "ox": 1507,
      "Ġel": 1508,
      "Ġpossible": 1509,
      "ples": 1510,
      "Ġcountry": 1511,
      "Ġhig": 1512,
      "ĠQ": 1513,
      "Ġinvol": 1514,
      "une": 1515,
      "Ġ12": 1516,
      "Ġhead": 1517,
      "urope": 1518,
      "Ġtoo": 1519,
      "Ġopen": 1520,
      "ention": 1521,
      "Ġrece": 1522,
      "ways": 1523,
      "ories": 1524,
      "Ġcause": 1525,
      "Ġobject": 1526,
      "ients": 1527,
      "Ġrad": 1528,
      "Ġdev": 1529,
      "ĠCom": 1530,
      "Ġ198": 1531,
      "Ġindu": 1532,
      "Ġbir": 1533,
      "ĠChrist": 1534,
      "Ġfollowing": 1535,
      "18": 1536,
      "ental": 1537,
      "Ġmethod": 1538,
      "ilar": 1539,
      "Ġmeans": 1540,
      "Ġlangu": 1541,
      "ek": 1542,
      "Ġlater": 1543,
      "Ġbest": 1544,
      "pect": 1545,
      "iness": 1546,
      "Ġpain": 1547,
      "Ġbro": 1548,
      "Ġlocal": 1549,
      "Ġfre": 1550,
      "Ġbi": 1551,
      "Ġcost": 1552,
      "ĠHowever": 1553,
      "pr": 1554,
      "Ġbetter": 1555,
      "Ġmonth": 1556,
      "resent": 1557,
      "ĠAf": 1558,
      "Ġperform": 1559,
      "rid": 1560,
      "ggest": 1561,
      "ope": 1562,
      "ither": 1563,
      "ged": 1564,
      "Ġfar": 1565,
      "Ġtop": 1566,
      "Ġobs": 1567,
      "Ġgiven": 1568,
      "Ġtimes": 1569,
      "Ġtreatment": 1570,
      "iter": 1571,
      "Ġvol": 1572,
      "oint": 1573,
      "ling": 1574,
      "ĠMed": 1575,
      "ĠWhen": 1576,
      "ĠEurope": 1577,
      "ends": 1578,
      "Ġuntil": 1579,
      "ĠOr": 1580,
      "ĠAll": 1581,
      "cially": 1582,
      "be": 1583,
      "ware": 1584,
      "Ġfin": 1585,
      "Ġ$": 1586,
      "not": 1587,
      "Ġothers": 1588,
      "Ġche": 1589,
      "Ġcond": 1590,
      "ience": 1591,
      "ogn": 1592,
      "Ġmean": 1593,
      "Ġ16": 1594,
      "orld": 1595,
      "Ġcal": 1596,
      "Ġdel": 1597,
      "Ġcertain": 1598,
      "ternational": 1599,
      "ĠSci": 1600,
      "Ġtri": 1601,
      "Ġage": 1602,
      "face": 1603,
      "Ġcancer": 1604,
      "urther": 1605,
      "Ġnatural": 1606,
      "Ġsignific": 1607,
      "Ġlist": 1608,
      "Ġfac": 1609,
      "Ġauthor": 1610,
      "atory": 1611,
      "200": 1612,
      "Ġrun": 1613,
      "Ġmillion": 1614,
      "Ġpolit": 1615,
      "Ġsuggest": 1616,
      "Ġbased": 1617,
      "Ġbook": 1618,
      "aken": 1619,
      "Ġcells": 1620,
      "ised": 1621,
      "Ġcase": 1622,
      "Ġlittle": 1623,
      "ills": 1624,
      "por": 1625,
      "ĠTe": 1626,
      "Ġappear": 1627,
      "ĠLe": 1628,
      "aps": 1629,
      "oph": 1630,
      "Ġrecord": 1631,
      "Ġproblems": 1632,
      "ĠOn": 1633,
      "oks": 1634,
      "ĠEar": 1635,
      "Ġprevent": 1636,
      "Ġcomput": 1637,
      "Ġsuccess": 1638,
      "--": 1639,
      "Ġsaf": 1640,
      "Ġseem": 1641,
      "Ġpress": 1642,
      "Ġcome": 1643,
      "Ġkeep": 1644,
      "Ġlo": 1645,
      "Ġcentury": 1646,
      "We": 1647,
      "ots": 1648,
      "Ġproblem": 1649,
      "Ġfree": 1650,
      "rap": 1651,
      "Ġdeath": 1652,
      "ĠJohn": 1653,
      "50": 1654,
      "Ġassoci": 1655,
      "SA": 1656,
      "ploy": 1657,
      "Ġable": 1658,
      "ured": 1659,
      "11": 1660,
      "Ġthings": 1661,
      "orts": 1662,
      "lection": 1663,
      "Ġput": 1664,
      "Ġdeterm": 1665,
      "Ġpost": 1666,
      "ances": 1667,
      "Ġstruct": 1668,
      "Ġyoung": 1669,
      "Ġheart": 1670,
      "ĠTo": 1671,
      "Ġpopulation": 1672,
      "ones": 1673,
      "Ġsw": 1674,
      "Ġplant": 1675,
      "Ġhowever": 1676,
      "ately": 1677,
      "oid": 1678,
      "Ġexist": 1679,
      "aper": 1680,
      "Ġturn": 1681,
      "Ġvir": 1682,
      "Ġhapp": 1683,
      "Ġlevels": 1684,
      "Ġaccess": 1685,
      "Ġestab": 1686,
      "ĠBrit": 1687,
      "rug": 1688,
      "Ġspace": 1689,
      "\".": 1690,
      "Ġ--": 1691,
      "Ġdays": 1692,
      "Ġresearc": 1693,
      "ley": 1694,
      "Ġusually": 1695,
      "Ġfil": 1696,
      "ler": 1697,
      "etic": 1698,
      "Ġalong": 1699,
      "ĠBe": 1700,
      "Ġshort": 1701,
      "by": 1702,
      "Ġprom": 1703,
      "ĠWar": 1704,
      "vious": 1705,
      "Ġ|": 1706,
      "Ġhard": 1707,
      "Ġsing": 1708,
      "Ġtype": 1709,
      "Ġlet": 1710,
      "over": 1711,
      "Ġamount": 1712,
      "ane": 1713,
      "isc": 1714,
      "Ġbus": 1715,
      "icult": 1716,
      "elf": 1717,
      "Ġpast": 1718,
      "ember": 1719,
      "ĠAfric": 1720,
      "ciety": 1721,
      "Ġcomb": 1722,
      "Ġindust": 1723,
      "app": 1724,
      "ression": 1725,
      "Ġcirc": 1726,
      "ators": 1727,
      "Ġrele": 1728,
      "Ġdescrib": 1729,
      "Ġbenef": 1730,
      "Ġsystems": 1731,
      "Ġcommunity": 1732,
      "Ġflow": 1733,
      "idd": 1734,
      "Ġabove": 1735,
      "Ġill": 1736,
      "mber": 1737,
      "ray": 1738,
      "ĠGerm": 1739,
      "Ġlikely": 1740,
      "ĠSc": 1741,
      "af": 1742,
      "work": 1743,
      "Ġdra": 1744,
      "Ġleast": 1745,
      "alf": 1746,
      "most": 1747,
      "str": 1748,
      "Ġresults": 1749,
      "ored": 1750,
      "ribut": 1751,
      "As": 1752,
      "ued": 1753,
      "nal": 1754,
      "Ġmult": 1755,
      "aster": 1756,
      "Ġsignificant": 1757,
      "Ġbecame": 1758,
      "Ġspecial": 1759,
      "Ġsimilar": 1760,
      "urch": 1761,
      "ument": 1762,
      "Ġeducation": 1763,
      "Ġgeneral": 1764,
      "Ġer": 1765,
      "erence": 1766,
      "Ġsite": 1767,
      "uture": 1768,
      "Ġleft": 1769,
      "aim": 1770,
      "ape": 1771,
      "ĠGen": 1772,
      "Ġcharacter": 1773,
      "Ġclear": 1774,
      "ruction": 1775,
      "ledge": 1776,
      "Ġgre": 1777,
      "wh": 1778,
      "erc": 1779,
      "ott": 1780,
      "Ġmov": 1781,
      "ĠGe": 1782,
      "Ġcountries": 1783,
      "ode": 1784,
      "Ġnever": 1785,
      "ending": 1786,
      "obal": 1787,
      "Ġcourse": 1788,
      "ocus": 1789,
      "Ġoffic": 1790,
      "put": 1791,
      "ĠWorld": 1792,
      "oman": 1793,
      "If": 1794,
      "Ġinvest": 1795,
      "pecially": 1796,
      "aining": 1797,
      "Ġcrit": 1798,
      "Ġtemper": 1799,
      "for": 1800,
      "ĠHealth": 1801,
      "Ġdiscuss": 1802,
      "ales": 1803,
      "Ġbegin": 1804,
      "ortun": 1805,
      "ae": 1806,
      "Ġdri": 1807,
      "Ġnext": 1808,
      "Ġprofess": 1809,
      "right": 1810,
      "ences": 1811,
      "val": 1812,
      "Ġ197": 1813,
      "ething": 1814,
      "eb": 1815,
      "ours": 1816,
      "ĠSy": 1817,
      "Ġincrease": 1818,
      "eter": 1819,
      "cle": 1820,
      "ĠâĢĺ": 1821,
      "lo": 1822,
      "Ġchem": 1823,
      "Ġnecess": 1824,
      "Ġenc": 1825,
      "ĠNorth": 1826,
      "Ġconn": 1827,
      "Ġlanguage": 1828,
      "ublic": 1829,
      "Ġconditions": 1830,
      "Ġfunction": 1831,
      "ges": 1832,
      "Ġchanges": 1833,
      "earch": 1834,
      "Ġparent": 1835,
      "Ġplac": 1836,
      "Ġprim": 1837,
      "30": 1838,
      "Ġtoday": 1839,
      "ication": 1840,
      "ĠMay": 1841,
      "Ġgr": 1842,
      "ĠYork": 1843,
      "Ġterm": 1844,
      "ĠCar": 1845,
      "ively": 1846,
      "duct": 1847,
      "ober": 1848,
      "asing": 1849,
      "Ġteac": 1850,
      "Ġdifficult": 1851,
      "Ġrepresent": 1852,
      "port": 1853,
      "Ġmaking": 1854,
      "Ġcreat": 1855,
      "ĠCal": 1856,
      "agement": 1857,
      "ilities": 1858,
      "ĠWhat": 1859,
      "Ġstudies": 1860,
      "Ġside": 1861,
      "NA": 1862,
      "iam": 1863,
      "__": 1864,
      "Ġnational": 1865,
      "Ġscience": 1866,
      "Ġ14": 1867,
      "ilt": 1868,
      "Ġcity": 1869,
      "Ġhigher": 1870,
      "sw": 1871,
      "ann": 1872,
      "Ġ30": 1873,
      "artment": 1874,
      "Ġask": 1875,
      "let": 1876,
      "selves": 1877,
      "ffic": 1878,
      "ĠAmerica": 1879,
      "Ġspecific": 1880,
      "Ġwords": 1881,
      "Ġdoct": 1882,
      "Ġbehav": 1883,
      "ĠMar": 1884,
      "ially": 1885,
      "itor": 1886,
      "ĠJew": 1887,
      "Ġsubject": 1888,
      "Ġgive": 1889,
      "Ġsum": 1890,
      "Ġstrong": 1891,
      "Ġlearn": 1892,
      "sp": 1893,
      "Ġtru": 1894,
      "St": 1895,
      "Ġwhether": 1896,
      "Ġkind": 1897,
      "Ġdue": 1898,
      "ormal": 1899,
      "Ġconcer": 1900,
      "edi": 1901,
      "Ġalways": 1902,
      "Ġground": 1903,
      "Ġfeel": 1904,
      "Ġtoget": 1905,
      "Ġtogether": 1906,
      "Ġdr": 1907,
      "Ġfund": 1908,
      "Ġfull": 1909,
      "ird": 1910,
      "ung": 1911,
      "rams": 1912,
      "Ġcases": 1913,
      "Ġcr": 1914,
      "Ġcho": 1915,
      "Ġinflu": 1916,
      "ibr": 1917,
      "Ġaway": 1918,
      "Ġapplic": 1919,
      "unt": 1920,
      "ee": 1921,
      ".)": 1922,
      "Ġupon": 1923,
      "Ġline": 1924,
      "Ġpolic": 1925,
      "Ġsomething": 1926,
      "Ġbrain": 1927,
      "Ġresearchers": 1928,
      "Ġfuture": 1929,
      "Ġgroups": 1930,
      "ivil": 1931,
      "ipp": 1932,
      "ency": 1933,
      "Ġeffects": 1934,
      "atch": 1935,
      "Ġdam": 1936,
      "ĠSouth": 1937,
      "Ġimpact": 1938,
      "Ġwind": 1939,
      "aves": 1940,
      "Ġey": 1941,
      "What": 1942,
      "Ġfocus": 1943,
      "Ġcomplete": 1944,
      "Ġenough": 1945,
      "oot": 1946,
      "acc": 1947,
      "Ġrespons": 1948,
      "Ġconsum": 1949,
      "ĠBl": 1950,
      "Ġpatients": 1951,
      "amm": 1952,
      "There": 1953,
      "istic": 1954,
      "Ġtechnology": 1955,
      "inci": 1956,
      "Ġespecially": 1957,
      "iting": 1958,
      "ĠDep": 1959,
      "apt": 1960,
      "For": 1961,
      "enn": 1962,
      "Ġz": 1963,
      "Ġpred": 1964,
      "Ġvarious": 1965,
      "Ġ11": 1966,
      "Ġrequire": 1967,
      "ĠSome": 1968,
      "ĠUS": 1969,
      "overed": 1970,
      "ĠAb": 1971,
      "org": 1972,
      "Ġann": 1973,
      "ĠState": 1974,
      "Ġdeveloped": 1975,
      "omes": 1976,
      "Ġworks": 1977,
      "Ġrelig": 1978,
      "Ġfurther": 1979,
      "Ġtext": 1980,
      "Ġmembers": 1981,
      "ĠEarth": 1982,
      "ique": 1983,
      "Ġindic": 1984,
      "Ġacross": 1985,
      "ĠRep": 1986,
      "ptoms": 1987,
      "ison": 1988,
      "ĠGo": 1989,
      "oney": 1990,
      "Ġhaving": 1991,
      "ches": 1992,
      "An": 1993,
      "verage": 1994,
      "ready": 1995,
      "ush": 1996,
      "Ġeither": 1997,
      "ream": 1998,
      "Ġsurface": 1999,
      "Ġteam": 2000,
      "Ġhouse": 2001,
      "Ġlearning": 2002,
      "ateg": 2003,
      "Ġprob": 2004,
      "Ġdrug": 2005,
      "ĠEnglish": 2006,
      "side": 2007,
      "Ġreason": 2008,
      "ification": 2009,
      "Ġseen": 2010,
      "Ġfield": 2011,
      "Ġele": 2012,
      "Ġfive": 2013,
      "Ġconsider": 2014,
      "mb": 2015,
      "augh": 2016,
      "Ġreturn": 2017,
      "Ġplants": 2018,
      "atures": 2019,
      "Ġtaken": 2020,
      "Ġmot": 2021,
      "Ġclose": 2022,
      "Ġobserv": 2023,
      "//": 2024,
      "Ġlower": 2025,
      "Ġquestion": 2026,
      "Ġstat": 2027,
      "rict": 2028,
      "Ġrather": 2029,
      "aching": 2030,
      "Ġaccording": 2031,
      "aut": 2032,
      "ires": 2033,
      "ER": 2034,
      "Ġaccount": 2035,
      "Ġphot": 2036,
      "reg": 2037,
      "ĠOne": 2038,
      "Ġur": 2039,
      "Ġcame": 2040,
      "Ġtry": 2041,
      "Ġmass": 2042,
      "etimes": 2043,
      "yl": 2044,
      "Ġworking": 2045,
      "Ġ196": 2046,
      "Ġfall": 2047,
      "bon": 2048,
      "Ġsit": 2049,
      "Ġevidence": 2050,
      "13": 2051,
      "Ġproduction": 2052,
      "ĠHist": 2053,
      "ery": 2054,
      "Ġresources": 2055,
      "rel": 2056,
      "ysis": 2057,
      "iol": 2058,
      "Ġ13": 2059,
      "Ġnet": 2060,
      "itary": 2061,
      "Ġsingle": 2062,
      "Ġdeg": 2063,
      "ules": 2064,
      "Ġpublished": 2065,
      "ĠX": 2066,
      "Ġdest": 2067,
      "Ġwhy": 2068,
      "thing": 2069,
      "Ġpolitical": 2070,
      "Ġflu": 2071,
      "Ġsource": 2072,
      "Ġrights": 2073,
      "my": 2074,
      "Ġalready": 2075,
      "ournal": 2076,
      "Ġkey": 2077,
      "Ġmeet": 2078,
      "ĠMan": 2079,
      "Ġneeds": 2080,
      "sych": 2081,
      "Ġstates": 2082,
      "Ġtool": 2083,
      "Ġdone": 2084,
      "eds": 2085,
      "Ġhistor": 2086,
      "Ġri": 2087,
      "://": 2088,
      "ĠThat": 2089,
      "Ġ2012": 2090,
      "15": 2091,
      "son": 2092,
      "Ġparticip": 2093,
      "Ġcreate": 2094,
      "Ġoil": 2095,
      "ttp": 2096,
      "Ġevent": 2097,
      "ibility": 2098,
      "Ġtot": 2099,
      "uel": 2100,
      "olic": 2101,
      "Ġcollect": 2102,
      "Ġgoing": 2103,
      "Ġrelations": 2104,
      "Ġsens": 2105,
      "Ġprotect": 2106,
      "ule": 2107,
      "Ġword": 2108,
      "oon": 2109,
      "Ġrange": 2110,
      "Ġdoc": 2111,
      "chie": 2112,
      "inc": 2113,
      "Ġknowledge": 2114,
      "ĠDr": 2115,
      "Ġvalue": 2116,
      "stitute": 2117,
      "Ġmedical": 2118,
      "Ġinit": 2119,
      "Ġtoward": 2120,
      "ĠAust": 2121,
      "sh": 2122,
      "Ġfail": 2123,
      "osis": 2124,
      "ederal": 2125,
      "yn": 2126,
      "Ġrecogn": 2127,
      "Ġbegan": 2128,
      "opy": 2129,
      "Ġtradition": 2130,
      "Ġlive": 2131,
      "Ġexperience": 2132,
      "pos": 2133,
      "16": 2134,
      "Ġarticle": 2135,
      "ĠBy": 2136,
      "Ġess": 2137,
      "Ġdom": 2138,
      "pro": 2139,
      "Ġrate": 2140,
      "ried": 2141,
      "illed": 2142,
      "Ġimprove": 2143,
      "Ġred": 2144,
      "iet": 2145,
      "uation": 2146,
      "ask": 2147,
      "Ġarg": 2148,
      "Ġways": 2149,
      "Ġactivity": 2150,
      "ym": 2151,
      "iation": 2152,
      "Ġabs": 2153,
      "Ġphysical": 2154,
      "ĠHis": 2155,
      "Ġrole": 2156,
      "Ġonce": 2157,
      "Ġport": 2158,
      "estern": 2159,
      "Ġclimate": 2160,
      "roll": 2161,
      "Ġsent": 2162,
      "Ġmodel": 2163,
      "ĠGu": 2164,
      "17": 2165,
      "Ġwhole": 2166,
      "like": 2167,
      "Ġaddress": 2168,
      "hib": 2169,
      "epend": 2170,
      "Ġgrowth": 2171,
      "itud": 2172,
      "oura": 2173,
      "Ġhalf": 2174,
      "Ġsymptoms": 2175,
      "gest": 2176,
      "ĠWith": 2177,
      "Ġdetail": 2178,
      "Ġcannot": 2179,
      "ront": 2180,
      "Ġitself": 2181,
      "ĠStud": 2182,
      "Ġfish": 2183,
      "Ġanimals": 2184,
      "Ġthought": 2185,
      "Ġthemselves": 2186,
      "Ġemploy": 2187,
      "Ġbig": 2188,
      "Ġfrequ": 2189,
      "Ġgas": 2190,
      "Ġreally": 2191,
      "Ġbelow": 2192,
      "sc": 2193,
      "Ġactivities": 2194,
      "Ġwhite": 2195,
      "Ġeconomic": 2196,
      "Ġsize": 2197,
      "ĠAct": 2198,
      "reme": 2199,
      "ened": 2200,
      "Ġhold": 2201,
      "Ġmic": 2202,
      "):": 2203,
      "ĠShe": 2204,
      "Ġcreated": 2205,
      "Ġliving": 2206,
      "14": 2207,
      "ington": 2208,
      "cient": 2209,
      "Ġincreased": 2210,
      "Ch": 2211,
      "ĠAm": 2212,
      "Ġbuilding": 2213,
      "Ġ2010": 2214,
      "Ġalmost": 2215,
      "Ġtypes": 2216,
      "Ġengine": 2217,
      "ications": 2218,
      "Ġ194": 2219,
      "Ġmakes": 2220,
      "Ġtook": 2221,
      "Ġsun": 2222,
      "ulations": 2223,
      "Ġnature": 2224,
      "Ġconsidered": 2225,
      "rad": 2226,
      "Ġwide": 2227,
      "ĠIm": 2228,
      "Ġge": 2229,
      "oll": 2230,
      "ĠII": 2231,
      "ĠCo": 2232,
      "apan": 2233,
      "ables": 2234,
      "Ġloss": 2235,
      "Ġ2011": 2236,
      "Ġyet": 2237,
      "sequ": 2238,
      "Ġblack": 2239,
      "aring": 2240,
      "fact": 2241,
      "Ġrepl": 2242,
      "Ġscientists": 2243,
      "Ġvers": 2244,
      "Ġcut": 2245,
      "Ġwr": 2246,
      "Ġentire": 2247,
      "acy": 2248,
      "fer": 2249,
      "itted": 2250,
      "minist": 2251,
      "ĠNe": 2252,
      "Ġbusiness": 2253,
      "Ġstory": 2254,
      "Ġrelated": 2255,
      "Ġpaper": 2256,
      "Ġself": 2257,
      "Ġintrodu": 2258,
      "ĠCenter": 2259,
      "Ġtell": 2260,
      "acks": 2261,
      "Ġpotential": 2262,
      "Ġsuper": 2263,
      "Ġregion": 2264,
      "Ġclaim": 2265,
      "Ġassociated": 2266,
      "empt": 2267,
      "Ġfamil": 2268,
      "ights": 2269,
      "ai": 2270,
      "go": 2271,
      "vere": 2272,
      "Ġneeded": 2273,
      "Ġarch": 2274,
      "Ġver": 2275,
      "Ġopt": 2276,
      "Ġprinci": 2277,
      "Ġstep": 2278,
      "rect": 2279,
      "ĠResearch": 2280,
      "Al": 2281,
      "alt": 2282,
      "ese": 2283,
      "Ġmodern": 2284,
      "amin": 2285,
      "ume": 2286,
      "Ġconcept": 2287,
      "abit": 2288,
      "Ġweek": 2289,
      "Ġmonths": 2290,
      "Ġsix": 2291,
      "Ġproducts": 2292,
      "eding": 2293,
      "ĠBritish": 2294,
      "Ġmor": 2295,
      "Ġcy": 2296,
      "Ġrecomm": 2297,
      "lands": 2298,
      "Ġla": 2299,
      "Ġrequired": 2300,
      "Ġpriv": 2301,
      "Ġaffect": 2302,
      "ĠPres": 2303,
      "Ġprovides": 2304,
      "pid": 2305,
      "Ġachie": 2306,
      "Ġprovided": 2307,
      "ster": 2308,
      "Ġcomputer": 2309,
      "Ġglobal": 2310,
      "Ġfri": 2311,
      "ĠPr": 2312,
      "Ġansw": 2313,
      "Ġ100": 2314,
      "ips": 2315,
      "Ġlab": 2316,
      "Ġlay": 2317,
      "Ġadult": 2318,
      "Ġbar": 2319,
      "How": 2320,
      "lor": 2321,
      "Ġmeasure": 2322,
      "bo": 2323,
      "Ã©": 2324,
      "Ġsepar": 2325,
      "Ġpressure": 2326,
      "iddle": 2327,
      "erve": 2328,
      "Ġquestions": 2329,
      "attle": 2330,
      "ES": 2331,
      "Ġ25": 2332,
      "Ġpage": 2333,
      "Ġneg": 2334,
      "rie": 2335,
      "Ġconduct": 2336,
      "Ġ50": 2337,
      "ney": 2338,
      "Ġparts": 2339,
      "ensive": 2340,
      "Ġquality": 2341,
      "Ġsound": 2342,
      "Ġmind": 2343,
      "ript": 2344,
      "rown": 2345,
      "ĠCont": 2346,
      "ops": 2347,
      "vey": 2348,
      "Ġrecent": 2349,
      "Ġprograms": 2350,
      "ĠCanad": 2351,
      "ĠSchool": 2352,
      "aged": 2353,
      "ĠTr": 2354,
      "Ġreduce": 2355,
      "icles": 2356,
      "hing": 2357,
      "Ġactually": 2358,
      "ĠNo": 2359,
      "aff": 2360,
      "urity": 2361,
      "Ġsoil": 2362,
      "Ġproduce": 2363,
      "atter": 2364,
      "inter": 2365,
      "Ġever": 2366,
      "Ġsure": 2367,
      "ma": 2368,
      "ĠJapan": 2369,
      "Ġlink": 2370,
      "Ġmaterials": 2371,
      "ging": 2372,
      "Ġearth": 2373,
      "ricult": 2374,
      "ucle": 2375,
      "urs": 2376,
      "irm": 2377,
      "Ġissues": 2378,
      "ival": 2379,
      "ervation": 2380,
      "Ġpay": 2381,
      "chan": 2382,
      "iding": 2383,
      "Ġcoll": 2384,
      "rated": 2385,
      "To": 2386,
      "ivity": 2387,
      "Ġemer": 2388,
      "iment": 2389,
      "ister": 2390,
      "rought": 2391,
      "Ġtotal": 2392,
      "oles": 2393,
      "icine": 2394,
      "Ġfire": 2395,
      "Ġdeb": 2396,
      "iction": 2397,
      "aries": 2398,
      "Ġenvironmental": 2399,
      "ĠÂ": 2400,
      "ĠScience": 2401,
      "Ġchall": 2402,
      "Ġcomplex": 2403,
      "lying": 2404,
      "Ġ2009": 2405,
      "Ġliter": 2406,
      "Ġsam": 2407,
      "Ġregard": 2408,
      "Ġgreen": 2409,
      "Ġbur": 2410,
      "Ġfarm": 2411,
      "ows": 2412,
      "AR": 2413,
      "Ġservices": 2414,
      "Ġchemical": 2415,
      "cil": 2416,
      "Ġ=": 2417,
      "Ġidea": 2418,
      "Ġreact": 2419,
      "When": 2420,
      "ĠDepartment": 2421,
      "Ġschools": 2422,
      "ĠWill": 2423,
      "Ġmaint": 2424,
      "utes": 2425,
      "Ġstudent": 2426,
      "ĠCount": 2427,
      "Ġsett": 2428,
      "Ġparents": 2429,
      "ĠJan": 2430,
      "ched": 2431,
      "Ġnecessary": 2432,
      "Ġsat": 2433,
      "lege": 2434,
      "Ġheav": 2435,
      "Ġsimple": 2436,
      "Ġrev": 2437,
      "Ġsurv": 2438,
      "Ġdig": 2439,
      "inary": 2440,
      "Ġshows": 2441,
      "ony": 2442,
      "ply": 2443,
      "Ġreported": 2444,
      "Ġbuilt": 2445,
      "Ġmoney": 2446,
      "Ġnut": 2447,
      "Ġsex": 2448,
      "Ġmarket": 2449,
      "ief": 2450,
      "utions": 2451,
      "nces": 2452,
      "ternal": 2453,
      "onse": 2454,
      "Ġservice": 2455,
      "Ġcamp": 2456,
      "ores": 2457,
      "AT": 2458,
      "Ġhttp": 2459,
      "rench": 2460,
      "Ġ2008": 2461,
      "Ġprevious": 2462,
      "Ġeffective": 2463,
      "ĠAfter": 2464,
      "uck": 2465,
      "igure": 2466,
      "Ġrelative": 2467,
      "Ġhours": 2468,
      "Ġcondition": 2469,
      "ĠSec": 2470,
      "ze": 2471,
      "Ġtravel": 2472,
      "Ġaction": 2473,
      "Ġaccept": 2474,
      "uary": 2475,
      "ĠHar": 2476,
      "ID": 2477,
      "ĠKing": 2478,
      "Ġled": 2479,
      "Ġstandard": 2480,
      "ĠCalif": 2481,
      "ĠPar": 2482,
      "ĠMin": 2483,
      "umb": 2484,
      "Ġterms": 2485,
      "Ġsense": 2486,
      "amed": 2487,
      "ections": 2488,
      "ĠPe": 2489,
      "Ġskin": 2490,
      "het": 2491,
      "Ġposition": 2492,
      "Ġmatter": 2493,
      "lt": 2494,
      "But": 2495,
      "Ġquick": 2496,
      "Ġprote": 2497,
      "Ġunderstanding": 2498,
      "Ġtar": 2499,
      "duc": 2500,
      "Ġpattern": 2501,
      "imately": 2502,
      "Ġtrue": 2503,
      "Ġthroughout": 2504,
      "Ġforest": 2505,
      "Ġopportun": 2506,
      "Ġaverage": 2507,
      "arily": 2508,
      "Ġcaused": 2509,
      "Ġlot": 2510,
      "Ġorigin": 2511,
      "ĠAug": 2512,
      "Ġago": 2513,
      "usion": 2514,
      "Ġcontact": 2515,
      "Ġability": 2516,
      "Ġgreater": 2517,
      "atives": 2518,
      "dom": 2519,
      "ns": 2520,
      "ĠInstitute": 2521,
      "Ġlonger": 2522,
      "Ġpractice": 2523,
      "Ġconc": 2524,
      "cies": 2525,
      "based": 2526,
      "ĠJu": 2527,
      "Ġwild": 2528,
      "Ġfat": 2529,
      "Ġsuff": 2530,
      "ump": 2531,
      "Ġmanagement": 2532,
      "Ġoriginal": 2533,
      "Ġincreasing": 2534,
      "Ġweight": 2535,
      "izing": 2536,
      "ĠInf": 2537,
      "Ġdiagn": 2538,
      "Ġlate": 2539,
      "'re": 2540,
      "ĠEm": 2541,
      "Ġsometimes": 2542,
      "ening": 2543,
      "25": 2544,
      "IV": 2545,
      "hold": 2546,
      "itation": 2547,
      "Ġassess": 2548,
      "ength": 2549,
      "order": 2550,
      "Ġtax": 2551,
      "Ġgenerally": 2552,
      "erous": 2553,
      "Ġpath": 2554,
      "raft": 2555,
      "ene": 2556,
      "199": 2557,
      "Ġrelationship": 2558,
      "ĠEd": 2559,
      "ashington": 2560,
      "ornia": 2561,
      "pril": 2562,
      "Ġissue": 2563,
      "ĠSu": 2564,
      "ached": 2565,
      "adem": 2566,
      "Ġfactors": 2567,
      "Ġ24": 2568,
      "hood": 2569,
      "Ġfeet": 2570,
      "new": 2571,
      "Ġattempt": 2572,
      "Ġforce": 2573,
      "Ġproduced": 2574,
      "Ġens": 2575,
      "Ġapproach": 2576,
      "eration": 2577,
      "rate": 2578,
      "thern": 2579,
      "Ġviol": 2580,
      "ĠBo": 2581,
      "Ġincludes": 2582,
      "bor": 2583,
      "Ġimage": 2584,
      "Ġstructure": 2585,
      "Ġtaking": 2586,
      "istance": 2587,
      "Ġdesigned": 2588,
      "Ġshown": 2589,
      "Ġpopular": 2590,
      "Ġsubst": 2591,
      "anced": 2592,
      "Ġanalysis": 2593,
      "Ġthreat": 2594,
      "know": 2595,
      "aging": 2596,
      "istics": 2597,
      "fully": 2598,
      "Ġeffic": 2599,
      "ĠAustral": 2600,
      "Ġsea": 2601,
      "Ġbehavior": 2602,
      "ĠFran": 2603,
      "Ġprobably": 2604,
      "Ġwritten": 2605,
      "ades": 2606,
      "Ġnation": 2607,
      "lex": 2608,
      "ban": 2609,
      "Ġexerc": 2610,
      "Ġsoft": 2611,
      "Ġscientific": 2612,
      "Ġcarbon": 2613,
      "Ġsou": 2614,
      "ĠDo": 2615,
      "Ġjob": 2616,
      "IN": 2617,
      "Ġ2007": 2618,
      "stitution": 2619,
      "Ġreview": 2620,
      "Ġindustry": 2621,
      "ccording": 2622,
      "Ġtheory": 2623,
      "Ġmilitary": 2624,
      "issions": 2625,
      "Ġtown": 2626,
      "www": 2627,
      "Ġsources": 2628,
      "Ġheld": 2629,
      "Ġtemperature": 2630,
      "Ġdiv": 2631,
      "Ġspread": 2632,
      "Ġbelieve": 2633,
      "ĠPress": 2634,
      "pri": 2635,
      "ON": 2636,
      "Ġsociety": 2637,
      "Ġshall": 2638,
      "rial": 2639,
      "ronic": 2640,
      "Ġce": 2641,
      "Ġseries": 2642,
      "Ġofficial": 2643,
      "light": 2644,
      "cean": 2645,
      "ĠCalifornia": 2646,
      "ising": 2647,
      "Ġdoctor": 2648,
      "Ġcontent": 2649,
      "Ġdispl": 2650,
      "Ġevents": 2651,
      "ius": 2652,
      "ĠMarch": 2653,
      "asc": 2654,
      "lease": 2655,
      "Ġlog": 2656,
      "Ġnormal": 2657,
      "Ġforms": 2658,
      "vention": 2659,
      "Ġpict": 2660,
      "Ġinvolved": 2661,
      "amb": 2662,
      "rapy": 2663,
      "rew": 2664,
      "Ġheat": 2665,
      "Ġincluded": 2666,
      "abet": 2667,
      "Ġestim": 2668,
      "Ġearl": 2669,
      "Ġonline": 2670,
      "Ġuses": 2671,
      "Ġestablished": 2672,
      "Ġparticularly": 2673,
      "Ġfem": 2674,
      "Ġcolor": 2675,
      "ography": 2676,
      "inks": 2677,
      "ĠPer": 2678,
      "Ġreading": 2679,
      "Ġut": 2680,
      "Ġinternational": 2681,
      "Ġdemon": 2682,
      "Ġdou": 2683,
      "Ġcivil": 2684,
      "Ġindividuals": 2685,
      "Ġslow": 2686,
      "Ġsqu": 2687,
      "Ġnumbers": 2688,
      "Ġrespect": 2689,
      "Ġcomes": 2690,
      "ĠWest": 2691,
      "ille": 2692,
      "Ġlabor": 2693,
      "aving": 2694,
      "Ġcoun": 2695,
      "Ġmagn": 2696,
      "ĠOct": 2697,
      "Ġcontain": 2698,
      "On": 2699,
      "Ġexc": 2700,
      "ibrary": 2701,
      "Ġthing": 2702,
      "Ġpoll": 2703,
      "ĠPart": 2704,
      "Ġpersonal": 2705,
      "Ġmechan": 2706,
      "ĠJune": 2707,
      "Ġtalk": 2708,
      "Ġpolicy": 2709,
      "Ġvisit": 2710,
      "Ġbring": 2711,
      "Ġcauses": 2712,
      "oly": 2713,
      "Ġpoor": 2714,
      "Ġmovement": 2715,
      "haps": 2716,
      "Ġattack": 2717,
      "uth": 2718,
      "Ġemb": 2719,
      "ĠWashington": 2720,
      "useum": 2721,
      "hern": 2722,
      "ctions": 2723,
      "Ġthous": 2724,
      "Ġinj": 2725,
      "Ġrefer": 2726,
      "ressed": 2727,
      "Ġremov": 2728,
      "leep": 2729,
      "Ġthus": 2730,
      "Ġwhose": 2731,
      "Ġcat": 2732,
      "yle": 2733,
      "Ġstop": 2734,
      "ĠRet": 2735,
      "Ġste": 2736,
      "mon": 2737,
      "Ġinteract": 2738,
      "irit": 2739,
      "Ġdeveloping": 2740,
      "OR": 2741,
      "ĠAg": 2742,
      "Ġdeep": 2743,
      "rim": 2744,
      "undred": 2745,
      "Ġsimply": 2746,
      "You": 2747,
      "Ġfa": 2748,
      "ĠFrench": 2749,
      "ĠServ": 2750,
      "Ġcompl": 2751,
      "Ġoutside": 2752,
      "rand": 2753,
      "Ġmusic": 2754,
      "Ġresponse": 2755,
      "Ġalthough": 2756,
      "rig": 2757,
      "ĠMe": 2758,
      "ĠEl": 2759,
      "ĠRiver": 2760,
      "Ġbreak": 2761,
      "Ġdiet": 2762,
      "Ġinstit": 2763,
      "\",": 2764,
      "Ġserious": 2765,
      "Ġmeaning": 2766,
      "erson": 2767,
      "ecause": 2768,
      "isions": 2769,
      "ĠEduc": 2770,
      "verse": 2771,
      "Ġindepend": 2772,
      "ĠQu": 2773,
      "ift": 2774,
      "ĠSept": 2775,
      "Ġtraining": 2776,
      "see": 2777,
      "Ġvariety": 2778,
      "IS": 2779,
      "ĠPre": 2780,
      "ilos": 2781,
      "ĠApp": 2782,
      "Ġ/": 2783,
      "Ġ40": 2784,
      "ulated": 2785,
      "ror": 2786,
      "Ġanimal": 2787,
      "ĠCong": 2788,
      "Ġwarm": 2789,
      "ĠIndian": 2790,
      "Ġpsych": 2791,
      "where": 2792,
      "gency": 2793,
      "ners": 2794,
      "Ġskills": 2795,
      "Ġlives": 2796,
      "Ġtarget": 2797,
      "ĠCons": 2798,
      "ĠDav": 2799,
      "ĠAugust": 2800,
      "Ġinvestig": 2801,
      "ĠEuropean": 2802,
      "ulate": 2803,
      "ĠMany": 2804,
      "ĠHistory": 2805,
      "Ġmother": 2806,
      "reng": 2807,
      "Ġexperien": 2808,
      "Ġbirth": 2809,
      "ĠComp": 2810,
      "Ġcit": 2811,
      "itude": 2812,
      "part": 2813,
      "Ġbasic": 2814,
      "Ġface": 2815,
      "ĠGerman": 2816,
      "edia": 2817,
      "Ġbab": 2818,
      "ĠApril": 2819,
      "ribution": 2820,
      "Ġnorth": 2821,
      "ĠChina": 2822,
      "ads": 2823,
      "ufact": 2824,
      "Ġsold": 2825,
      "orthern": 2826,
      "Ġstri": 2827,
      "Ġselect": 2828,
      "Ġdocument": 2829,
      "ĠWhile": 2830,
      "Ġclean": 2831,
      "overy": 2832,
      "Ġconsist": 2833,
      "Ġnucle": 2834,
      "ĠInternational": 2835,
      "Ġimplement": 2836,
      "na": 2837,
      "Ġcompet": 2838,
      "ider": 2839,
      "che": 2840,
      "uge": 2841,
      "Ġdecl": 2842,
      "Ġmach": 2843,
      "Ġlarger": 2844,
      "rast": 2845,
      "Ġmethods": 2846,
      "ĠSm": 2847,
      "rance": 2848,
      "Ġinteg": 2849,
      "Ġencoura": 2850,
      "PA": 2851,
      "con": 2852,
      "aily": 2853,
      "Ġnight": 2854,
      "rs": 2855,
      "ternet": 2856,
      "ĠChurch": 2857,
      "ino": 2858,
      "Ġetc": 2859,
      "ĠGl": 2860,
      "aches": 2861,
      "Ġvide": 2862,
      "ĠPresident": 2863,
      "Ġir": 2864,
      "ĠJuly": 2865,
      "ĠDes": 2866,
      "Ġvirus": 2867,
      "Ġmess": 2868,
      "Ġthird": 2869,
      "Ġadded": 2870,
      "ground": 2871,
      "pose": 2872,
      "Ġelectric": 2873,
      "Ġcompany": 2874,
      "Ġx": 2875,
      "Ġculture": 2876,
      "Ġcapt": 2877,
      "Ġmiles": 2878,
      "Ġextreme": 2879,
      "Ġappl": 2880,
      "olec": 2881,
      "Ġcheck": 2882,
      "Ġcontinue": 2883,
      "wise": 2884,
      "ĠChar": 2885,
      "Ġbooks": 2886,
      "Ġappropri": 2887,
      "ĠAssoci": 2888,
      "Ġdefin": 2889,
      "ĠMc": 2890,
      "Ġvacc": 2891,
      "ĠProg": 2892,
      "Ġwebs": 2893,
      "Ġbacter": 2894,
      "Ġi": 2895,
      "Ġwent": 2896,
      "Ġhealthy": 2897,
      "Ġbroad": 2898,
      "Ġsil": 2899,
      "Ġtherefore": 2900,
      "elt": 2901,
      "Ġsouth": 2902,
      "Ġlack": 2903,
      "Ġtend": 2904,
      "Ġfru": 2905,
      "Ġmount": 2906,
      "reek": 2907,
      "Ġdamage": 2908,
      "Ġexcept": 2909,
      "Ġreceived": 2910,
      "ancy": 2911,
      "Ġsearch": 2912,
      "ĠBar": 2913,
      "aul": 2914,
      "ĠNA": 2915,
      "Ġtur": 2916,
      "Ġord": 2917,
      "22": 2918,
      "Ġsites": 2919,
      "ana": 2920,
      "Ġnearly": 2921,
      "ĠIS": 2922,
      "Ġconcent": 2923,
      "ĠMost": 2924,
      "Ġhundred": 2925,
      "Ġwood": 2926,
      "Ġregular": 2927,
      "Ġinstead": 2928,
      "Ġcompon": 2929,
      "ises": 2930,
      "eed": 2931,
      "Ġadditional": 2932,
      "iers": 2933,
      "oor": 2934,
      "Ġcross": 2935,
      "ls": 2936,
      "Ġeat": 2937,
      "ĠGovern": 2938,
      "ĠAc": 2939,
      "He": 2940,
      "uman": 2941,
      "ĠAfrica": 2942,
      "Ġgrowing": 2943,
      "gar": 2944,
      "Ġavoid": 2945,
      "ĠMore": 2946,
      "Ġcentral": 2947,
      "Ġteachers": 2948,
      ");": 2949,
      "den": 2950,
      "mit": 2951,
      "rael": 2952,
      "Ġdog": 2953,
      "Ġeth": 2954,
      "Ġfav": 2955,
      "rote": 2956,
      "40": 2957,
      "ĠFeb": 2958,
      "Ġdetermine": 2959,
      "year": 2960,
      "AN": 2961,
      "cember": 2962,
      "Ġimmedi": 2963,
      "ĠOther": 2964,
      "ellow": 2965,
      "IC": 2966,
      "uk": 2967,
      "ĠWilliam": 2968,
      "Ġcoast": 2969,
      "Ġdoing": 2970,
      "Ġprimary": 2971,
      "Ġattention": 2972,
      "Ġsafe": 2973,
      "Ġcover": 2974,
      "Ġexpos": 2975,
      "ĠChild": 2976,
      "Ġfederal": 2977,
      "Ġeval": 2978,
      "ĠRec": 2979,
      "ĠChristian": 2980,
      "Ġsoon": 2981,
      "Ġdraw": 2982,
      "astic": 2983,
      "ĠAnt": 2984,
      "ension": 2985,
      "ĠHer": 2986,
      "lim": 2987,
      "Ġbr": 2988,
      "ev": 2989,
      "Ġwriting": 2990,
      "Ġnetwork": 2991,
      "Ġcommand": 2992,
      "Ġshare": 2993,
      "60": 2994,
      "Ġreflect": 2995,
      "ounds": 2996,
      "Ġox": 2997,
      "imum": 2998,
      "Ġsal": 2999,
      "rieved": 3000,
      "Ġprint": 3001,
      "Ġobt": 3002,
      "Ġstreng": 3003,
      "set": 3004,
      "Ġquite": 3005,
      "Ġhimself": 3006,
      "Ġcompan": 3007,
      "Ġreligious": 3008,
      "ĠAfrican": 3009,
      "Ġleaders": 3010,
      "Ġhyd": 3011,
      "Ġseems": 3012,
      "Ġsection": 3013,
      "elling": 3014,
      "Ġmultip": 3015,
      "Ġwall": 3016,
      "Ġadminist": 3017,
      "80": 3018,
      "Ġfront": 3019,
      "Ġ2006": 3020,
      "ems": 3021,
      "Ġsust": 3022,
      "ext": 3023,
      "ĠIndia": 3024,
      "Ġfamilies": 3025,
      "aling": 3026,
      "Ġ21": 3027,
      "Ġidentify": 3028,
      "Ġsafety": 3029,
      "Ġreve": 3030,
      "ama": 3031,
      "Ġnews": 3032,
      "hel": 3033,
      "Ġeasy": 3034,
      "Ġsevere": 3035,
      "Ġhabit": 3036,
      "ĠCor": 3037,
      "ĠInt": 3038,
      "ovember": 3039,
      "ĠInc": 3040,
      "Ġtakes": 3041,
      "mosp": 3042,
      "ĠCounty": 3043,
      "cell": 3044,
      "lation": 3045,
      "ridge": 3046,
      "Ġcorrect": 3047,
      "Ġbeginning": 3048,
      "ields": 3049,
      "ha": 3050,
      "ĠRuss": 3051,
      "ĠAmericans": 3052,
      "term": 3053,
      "Ġbrought": 3054,
      "ĠMon": 3055,
      "ĠJanuary": 3056,
      "Ġcommunities": 3057,
      "ulf": 3058,
      "Ġdirectly": 3059,
      "Ġaltern": 3060,
      "ĠEngland": 3061,
      "omet": 3062,
      "Ġpoints": 3063,
      "Ġprep": 3064,
      "oes": 3065,
      "aly": 3066,
      "Ġmanufact": 3067,
      "Ġlargest": 3068,
      "Ġsolar": 3069,
      "Ġjud": 3070,
      "Ġveget": 3071,
      "rab": 3072,
      "ription": 3073,
      "Ġdescribed": 3074,
      "lin": 3075,
      "Ġsus": 3076,
      "Ġice": 3077,
      "Ġprivate": 3078,
      "Ġproced": 3079,
      "ĠPol": 3080,
      "itte": 3081,
      "ceed": 3082,
      "inct": 3083,
      "ĠAlthough": 3084,
      "Ġdemonstr": 3085,
      "ĠSeptember": 3086,
      "abetes": 3087,
      "room": 3088,
      "Ġlove": 3089,
      "Ġhost": 3090,
      "Ġtraditional": 3091,
      "Ġpp": 3092,
      "pper": 3093,
      "Ġhor": 3094,
      "exic": 3095,
      "uments": 3096,
      "Ġimages": 3097,
      "osition": 3098,
      "Ġactive": 3099,
      "Ġideas": 3100,
      "Ġefforts": 3101,
      "ming": 3102,
      "Ġlost": 3103,
      "isms": 3104,
      "Ġcapital": 3105,
      "Ġtests": 3106,
      "24": 3107,
      "Ġhar": 3108,
      "eks": 3109,
      "ondon": 3110,
      "Ġhumans": 3111,
      "Ġrout": 3112,
      "estic": 3113,
      "Ġdang": 3114,
      "ford": 3115,
      "erg": 3116,
      "Ġbenefits": 3117,
      "yond": 3118,
      "ĠCity": 3119,
      "ĠReg": 3120,
      "Ġlimited": 3121,
      "roy": 3122,
      "anks": 3123,
      "Ġpositive": 3124,
      "Ġ193": 3125,
      "Ġprior": 3126,
      "23": 3127,
      "EN": 3128,
      "Ġbott": 3129,
      "Ġlands": 3130,
      "Ġtiss": 3131,
      "Ġlength": 3132,
      "life": 3133,
      "used": 3134,
      "Ġinfection": 3135,
      "Ġrates": 3136,
      "Ġbase": 3137,
      "ĠOctober": 3138,
      "Ġrare": 3139,
      "ĠMus": 3140,
      "bit": 3141,
      "mar": 3142,
      "oke": 3143,
      "ruary": 3144,
      "ĠWeb": 3145,
      "gn": 3146,
      "istry": 3147,
      "Ġstress": 3148,
      "Ġagricult": 3149,
      "mission": 3150,
      "Ġfuel": 3151,
      "Ġtools": 3152,
      "Ġinterp": 3153,
      "Ġtrees": 3154,
      "Ġdied": 3155,
      "Ġcommer": 3156,
      "Ġ,": 3157,
      "Ġlaws": 3158,
      "Ġder": 3159,
      "Ġmicro": 3160,
      "ĠIsrael": 3161,
      "ĠJewish": 3162,
      "Ġdecre": 3163,
      "Ġprogress": 3164,
      "Ġdoesn": 3165,
      "And": 3166,
      "Ġ2005": 3167,
      "Ġestablish": 3168,
      "ĠTra": 3169,
      "Ġbal": 3170,
      "Ġspeak": 3171,
      "Ġborn": 3172,
      "Ġson": 3173,
      "iency": 3174,
      "iles": 3175,
      "Ġforces": 3176,
      "Ġfoods": 3177,
      "Ġ23": 3178,
      "Ġharm": 3179,
      "Ġlocated": 3180,
      "Ġcenter": 3181,
      "Ġcompared": 3182,
      "Ġformer": 3183,
      "ĠTw": 3184,
      "men": 3185,
      "Ġtree": 3186,
      "ĠSw": 3187,
      "Ġpatient": 3188,
      "Ġcontains": 3189,
      "urg": 3190,
      "asons": 3191,
      "Ġcontribut": 3192,
      "Ġagree": 3193,
      "aces": 3194,
      "alled": 3195,
      "Ġimpl": 3196,
      "Ġclin": 3197,
      "Ġelse": 3198,
      "Ġ2000": 3199,
      "hy": 3200,
      "Ġevolution": 3201,
      "Ġfather": 3202,
      "ĠSch": 3203,
      "ham": 3204,
      "Ġuseful": 3205,
      "Ġstarted": 3206,
      "Ġhighly": 3207,
      "ĠRetrieved": 3208,
      "Ġkids": 3209,
      "ica": 3210,
      "rag": 3211,
      "Ġmill": 3212,
      "Ġsleep": 3213,
      "Ġquant": 3214,
      "ously": 3215,
      "Ġarri": 3216,
      "Ġrapid": 3217,
      "Ġperformance": 3218,
      "Ġproperty": 3219,
      "ĠVir": 3220,
      "Ġrock": 3221,
      "can": 3222,
      "uries": 3223,
      "izations": 3224,
      "eal": 3225,
      "ĠCongress": 3226,
      "Ġbehind": 3227,
      "So": 3228,
      "cks": 3229,
      "apter": 3230,
      "Ġdifference": 3231,
      "Ġworkers": 3232,
      "ĠPark": 3233,
      "Ġfile": 3234,
      "ocr": 3235,
      "Ġcalc": 3236,
      "Ġleading": 3237,
      "Ġang": 3238,
      "water": 3239,
      "Ġpan": 3240,
      "Ġancient": 3241,
      "ĠCanada": 3242,
      "ĠArt": 3243,
      "ĠMexic": 3244,
      "Ġfeed": 3245,
      "Ġgetting": 3246,
      "Ġtold": 3247,
      "Ġwrote": 3248,
      "ĠJes": 3249,
      "Ġmid": 3250,
      "ĠSan": 3251,
      "Ġdiseases": 3252,
      "Ġeasily": 3253,
      "icated": 3254,
      "mitted": 3255,
      "Ġtransport": 3256,
      "ĠSociety": 3257,
      "Ġhands": 3258,
      "ils": 3259,
      "leb": 3260,
      "ĠUs": 3261,
      "pan": 3262,
      "Ġlif": 3263,
      "fficient": 3264,
      "pite": 3265,
      "Ġcolon": 3266,
      "hens": 3267,
      "Ġadop": 3268,
      "ĠGreat": 3269,
      "aters": 3270,
      "Ġcarry": 3271,
      "itis": 3272,
      "oses": 3273,
      "ĠDecember": 3274,
      "Ġaware": 3275,
      "Ġinside": 3276,
      "ĠGeneral": 3277,
      "Ġlooking": 3278,
      "Ġunc": 3279,
      "Ġwa": 3280,
      "Ġquickly": 3281,
      "Ġeye": 3282,
      "ED": 3283,
      "Ġ195": 3284,
      "Ġ22": 3285,
      "ĠEducation": 3286,
      "Ġsupply": 3287,
      "orks": 3288,
      "Ġanswer": 3289,
      "Ġdrink": 3290,
      "Ġremain": 3291,
      "Ġ2013": 3292,
      "ĠCoun": 3293,
      "Ġfoot": 3294,
      "Ġjo": 3295,
      "One": 3296,
      "lam": 3297,
      "Ġking": 3298,
      "IT": 3299,
      "Ġep": 3300,
      "oming": 3301,
      "Ġweeks": 3302,
      "Ġhot": 3303,
      "Ġcontinued": 3304,
      "Ġlines": 3305,
      "Ġaccom": 3306,
      "Ġnothing": 3307,
      "Ġvict": 3308,
      "Ġdark": 3309,
      "Ġvalues": 3310,
      "Ġremains": 3311,
      "Ġmedia": 3312,
      "Ġgot": 3313,
      "Ġsummer": 3314,
      "ĠNot": 3315,
      "Ġten": 3316,
      "omb": 3317,
      "Ġachieve": 3318,
      "ĠJournal": 3319,
      "osing": 3320,
      "ties": 3321,
      "Ġfeatures": 3322,
      "iques": 3323,
      "Ġcust": 3324,
      "Ġbasis": 3325,
      "Ġseason": 3326,
      "Ġrecently": 3327,
      "Ġinfluence": 3328,
      "Ġdry": 3329,
      "Ġarm": 3330,
      "Ġult": 3331,
      "Ġbit": 3332,
      "ospital": 3333,
      "Ġexpect": 3334,
      "inese": 3335,
      "fect": 3336,
      "Ġbillion": 3337,
      "Ġmolec": 3338,
      "ĠEast": 3339,
      "Ġfollowed": 3340,
      "ingu": 3341,
      "âĢ¢": 3342,
      "vest": 3343,
      "Ġfight": 3344,
      "Ġpurpose": 3345,
      "Ġplaces": 3346,
      "Ġprotection": 3347,
      "ĠNovember": 3348,
      "ĠOf": 3349,
      "rogen": 3350,
      "ĠFrom": 3351,
      "Ġcitiz": 3352,
      "inated": 3353,
      "head": 3354,
      "Ġgradu": 3355,
      "Ġcollection": 3356,
      "ĠFirst": 3357,
      "âĢ¦": 3358,
      "itting": 3359,
      "ĠUnion": 3360,
      "Ġcritical": 3361,
      "Ġsaw": 3362,
      "Ġprec": 3363,
      "AS": 3364,
      "Ġappropriate": 3365,
      "orders": 3366,
      "Ġextra": 3367,
      "idents": 3368,
      "iber": 3369,
      "Ġtrade": 3370,
      "Ġstandards": 3371,
      "arian": 3372,
      "Ġobjects": 3373,
      "Ġoffer": 3374,
      "Ġprojects": 3375,
      "By": 3376,
      "Ġunique": 3377,
      "Ġcred": 3378,
      "Ġdrugs": 3379,
      "Ġund": 3380,
      "ought": 3381,
      "At": 3382,
      "Ġearlier": 3383,
      "Ġexact": 3384,
      "Ġpack": 3385,
      "ĠEc": 3386,
      "Ġadj": 3387,
      "Ġaspect": 3388,
      "Ġelements": 3389,
      "Ġatmosp": 3390,
      "arr": 3391,
      "Ġcosts": 3392,
      "Ġoccup": 3393,
      "craft": 3394,
      "Ġmember": 3395,
      "70": 3396,
      "Ġdemand": 3397,
      "Ġapprox": 3398,
      "itch": 3399,
      "ĠMy": 3400,
      "Ġdaily": 3401,
      "Ġbad": 3402,
      "iot": 3403,
      "Ġapplication": 3404,
      "Ġmemory": 3405,
      "Ġdead": 3406,
      "Ġadults": 3407,
      "Ġcam": 3408,
      "Ġinstru": 3409,
      "ura": 3410,
      "ilosoph": 3411,
      "Ġteaching": 3412,
      "sect": 3413,
      "rees": 3414,
      "airs": 3415,
      "hest": 3416,
      "Ġallows": 3417,
      "off": 3418,
      "ĠConf": 3419,
      "ittee": 3420,
      "Ġstra": 3421,
      "Ġwebsite": 3422,
      "ĠSystem": 3423,
      "ĠLondon": 3424,
      "ech": 3425,
      "Ġwalk": 3426,
      "Ġfinan": 3427,
      "ologies": 3428,
      "Ġfram": 3429,
      "ĠLaw": 3430,
      "ĠHIV": 3431,
      "ula": 3432,
      "ĠArch": 3433,
      "ĠTechn": 3434,
      "Ġgenetic": 3435,
      "Ġexpected": 3436,
      "Ġcard": 3437,
      "equ": 3438,
      "Ġtit": 3439,
      "ĠHouse": 3440,
      "Ġsomeone": 3441,
      "Ġeight": 3442,
      "orge": 3443,
      "Ġmultiple": 3444,
      "Ġolder": 3445,
      "ĠRoman": 3446,
      "odies": 3447,
      "ipment": 3448,
      "Ġbirds": 3449,
      "Ġsecurity": 3450,
      "uff": 3451,
      "Ġdecision": 3452,
      "aid": 3453,
      "Ġmission": 3454,
      "Ġsequ": 3455,
      "Ġacid": 3456,
      "Ġvideo": 3457,
      "ari": 3458,
      "ĠSur": 3459,
      "Ġfinal": 3460,
      "Ġhous": 3461,
      "ĠAssociation": 3462,
      "Ġchalleng": 3463,
      "Ġcompanies": 3464,
      "Ġcapac": 3465,
      "Ġweb": 3466,
      "Ġdate": 3467,
      "Ġnamed": 3468,
      "Ġcopy": 3469,
      "aught": 3470,
      "Ġsurround": 3471,
      "unch": 3472,
      "Ġasked": 3473,
      "29": 3474,
      "Ġpen": 3475,
      "Ġmiddle": 3476,
      "Ġrespond": 3477,
      "Ġden": 3478,
      "Ġaud": 3479,
      "Ġexercise": 3480,
      "Ġsituation": 3481,
      "Ġspirit": 3482,
      "nov": 3483,
      "Ġsymb": 3484,
      "itect": 3485,
      "Ġpredict": 3486,
      "Ġcool": 3487,
      "Ġfast": 3488,
      "hemat": 3489,
      "Ġformed": 3490,
      "Ġsoftware": 3491,
      "Ġbeg": 3492,
      "ĠFebruary": 3493,
      "Ġspeed": 3494,
      "Ġminutes": 3495,
      "Ġweather": 3496,
      "Ġplanet": 3497,
      "rest": 3498,
      "ying": 3499,
      "inate": 3500,
      "illing": 3501,
      "ira": 3502,
      "Ġrequires": 3503,
      "Ġsch": 3504,
      "ĠEnvironment": 3505,
      "Ġcorn": 3506,
      "AC": 3507,
      "Ġeffort": 3508,
      "ĠCommun": 3509,
      "sec": 3510,
      "Ġdiscovered": 3511,
      "wide": 3512,
      "Ġmom": 3513,
      "II": 3514,
      "Ġtable": 3515,
      "ky": 3516,
      "oe": 3517,
      "Ġreceive": 3518,
      "encies": 3519,
      "Ġappears": 3520,
      "rition": 3521,
      "Ġvit": 3522,
      "Ġ2004": 3523,
      "Ġversion": 3524,
      "Ġrain": 3525,
      "Ġbeyond": 3526,
      "Ġsmaller": 3527,
      "ully": 3528,
      "Ġ60": 3529,
      "ĠDay": 3530,
      "Ġgave": 3531,
      "bl": 3532,
      "su": 3533,
      "Ġnames": 3534,
      "ĠVol": 3535,
      "entially": 3536,
      "Ġexec": 3537,
      "Ġeconomy": 3538,
      "27": 3539,
      "ĠChinese": 3540,
      "Ġgard": 3541,
      "Ġpregn": 3542,
      "ĠYour": 3543,
      "Ġprotein": 3544,
      "Ġsn": 3545,
      "ixed": 3546,
      "Ġplaced": 3547,
      "Ġscreen": 3548,
      "Ġcurrently": 3549,
      "reet": 3550,
      "Ġtele": 3551,
      "Ġbecomes": 3552,
      "Ġcode": 3553,
      "AL": 3554,
      "ĠCour": 3555,
      "Ġchurch": 3556,
      "Ġessential": 3557,
      "Ġlegal": 3558,
      "Ġbreast": 3559,
      "Ġcou": 3560,
      "ĠDis": 3561,
      "Ġvirt": 3562,
      "ara": 3563,
      "ender": 3564,
      "____": 3565,
      "Ġones": 3566,
      "Ġperhaps": 3567,
      "coh": 3568,
      "ĠCouncil": 3569,
      "Ġ26": 3570,
      "Ġalone": 3571,
      "ĠDevelop": 3572,
      "atab": 3573,
      "Ġcourt": 3574,
      "king": 3575,
      "Ġ28": 3576,
      "26": 3577,
      "Ġanaly": 3578,
      "Ġimportance": 3579,
      "oring": 3580,
      "ĠJews": 3581,
      "izes": 3582,
      "Ġexposure": 3583,
      "28": 3584,
      "Ġensure": 3585,
      "Ġresponsible": 3586,
      "imal": 3587,
      "Ġdestroy": 3588,
      "atur": 3589,
      "Ġmention": 3590,
      "ĠDNA": 3591,
      "Ġveh": 3592,
      "ste": 3593,
      "Ġprocesses": 3594,
      "ĠPhil": 3595,
      "ĠBi": 3596,
      "Ġstay": 3597,
      "iest": 3598,
      "ĠProgram": 3599,
      "Ġmonitor": 3600,
      "oted": 3601,
      "aced": 3602,
      "Ġcultural": 3603,
      "Ġtesting": 3604,
      "Ġdisplay": 3605,
      "Ġrise": 3606,
      "omas": 3607,
      "Ġhon": 3608,
      "ĠPat": 3609,
      "Ġoccurs": 3610,
      "Ġstru": 3611,
      "Ġreach": 3612,
      "ĠHigh": 3613,
      "Ġconstruction": 3614,
      "atin": 3615,
      "Ġgoal": 3616,
      "time": 3617,
      "gypt": 3618,
      "Ġreports": 3619,
      "Ġ190": 3620,
      "ĠKe": 3621,
      "Ġhope": 3622,
      "Ġneigh": 3623,
      "Ġdepend": 3624,
      "ĠProt": 3625,
      "Ġanything": 3626,
      "iar": 3627,
      "ĠJesus": 3628,
      "Ġallowed": 3629,
      "Ġanti": 3630,
      "Ġcontroll": 3631,
      "Ġwinter": 3632,
      "nes": 3633,
      "Ġgame": 3634,
      "Ġadapt": 3635,
      "Ġriver": 3636,
      "edom": 3637,
      "resp": 3638,
      "Ġegg": 3639,
      "semb": 3640,
      "iece": 3641,
      "Ġenj": 3642,
      "Ġast": 3643,
      "Ġhistorical": 3644,
      "21": 3645,
      "Ġaim": 3646,
      "vant": 3647,
      "Ex": 3648,
      "ĠVal": 3649,
      "Ġgives": 3650,
      "ĠRed": 3651,
      "Ġfriends": 3652,
      "Ġcontinu": 3653,
      "Ġ:": 3654,
      "Ġwoman": 3655,
      "ĠRo": 3656,
      "Ġcold": 3657,
      "Ġrule": 3658,
      "aint": 3659,
      "Ġ27": 3660,
      "resh": 3661,
      "Ġacqu": 3662,
      "Ġwrite": 3663,
      "ĠInternet": 3664,
      "aign": 3665,
      "Ġdegree": 3666,
      "cious": 3667,
      "come": 3668,
      "book": 3669,
      "These": 3670,
      "bre": 3671,
      "ĠDavid": 3672,
      "Ġhyp": 3673,
      "Ġuser": 3674,
      "Ġpresident": 3675,
      "Ġbul": 3676,
      "ords": 3677,
      "gery": 3678,
      "Ġconsequ": 3679,
      "Ġsustain": 3680,
      "ocks": 3681,
      "ĠMich": 3682,
      "ĠTrans": 3683,
      "olar": 3684,
      "Ġtechniques": 3685,
      "erved": 3686,
      "Ġwaste": 3687,
      "Ġball": 3688,
      "Ġstar": 3689,
      "oration": 3690,
      "ĠFrance": 3691,
      "ĠGermany": 3692,
      "ĠPublic": 3693,
      "ests": 3694,
      "back": 3695,
      "anish": 3696,
      "Ġstrateg": 3697,
      "ĠGreen": 3698,
      "ĠJames": 3699,
      "Ġdiabetes": 3700,
      "Ġpeace": 3701,
      "Ġ...": 3702,
      "ĠDuring": 3703,
      "Ġequipment": 3704,
      "EC": 3705,
      "irection": 3706,
      "cape": 3707,
      "enty": 3708,
      "Ġlegis": 3709,
      "ĠPal": 3710,
      "Ġnuclear": 3711,
      "Ġlocation": 3712,
      "Ġroom": 3713,
      "vert": 3714,
      "ĠNASA": 3715,
      "ĠCath": 3716,
      "Ġforeign": 3717,
      "Ġrelatively": 3718,
      "known": 3719,
      "Ġstatus": 3720,
      "Ġmeasures": 3721,
      "Ġapplications": 3722,
      "udd": 3723,
      "DA": 3724,
      "ribute": 3725,
      "Ġgold": 3726,
      "asion": 3727,
      "aled": 3728,
      "Ġconflic": 3729,
      "Ġidentified": 3730,
      "Ġwon": 3731,
      "Ġ2003": 3732,
      "Ġ186": 3733,
      "Ġfair": 3734,
      "Ġeyes": 3735,
      "Ġillust": 3736,
      "oma": 3737,
      "Ġimag": 3738,
      "yp": 3739,
      "Ġblock": 3740,
      "ĠUN": 3741,
      "house": 3742,
      "oud": 3743,
      "Ġsuccessful": 3744,
      "more": 3745,
      "oday": 3746,
      "Ġdevice": 3747,
      "Ġemot": 3748,
      "Ġhelps": 3749,
      "ĠTex": 3750,
      "Ġtypically": 3751,
      "ĠProf": 3752,
      "Ġadvant": 3753,
      "Ġelectr": 3754,
      "Ġstage": 3755,
      "Ġbacteria": 3756,
      "Ġtowards": 3757,
      "Ġreduced": 3758,
      "Ġmajority": 3759,
      "enth": 3760,
      "Ġoffice": 3761,
      "ST": 3762,
      "ĠEgypt": 3763,
      "Ġorganization": 3764,
      "Ġaffected": 3765,
      "Ġtherapy": 3766,
      "ĠMary": 3767,
      "Ġpet": 3768,
      "Ġmodels": 3769,
      "Ġpassed": 3770,
      "igr": 3771,
      "Ġceleb": 3772,
      "Ġnegative": 3773,
      "Ġfindings": 3774,
      "Ġteacher": 3775,
      "ĠSim": 3776,
      "Ġsurvey": 3777,
      "era": 3778,
      "Ġfear": 3779,
      "rief": 3780,
      "Ġscale": 3781,
      "ĠAustralia": 3782,
      "Ġrecords": 3783,
      "Ġdifferences": 3784,
      "Ġassum": 3785,
      "antic": 3786,
      "ĠSince": 3787,
      "ĠEven": 3788,
      "phas": 3789,
      "ĠRober": 3790,
      "load": 3791,
      "Ġproviding": 3792,
      "ographic": 3793,
      "ession": 3794,
      "Ġcompar": 3795,
      "Pro": 3796,
      "ensity": 3797,
      "Ġmut": 3798,
      "Ġrules": 3799,
      "BN": 3800,
      "odes": 3801,
      "Ġbaby": 3802,
      "ĠRepublic": 3803,
      "Ġradiation": 3804,
      "Ġvill": 3805,
      "orms": 3806,
      "ĠWestern": 3807,
      "Ġrecommend": 3808,
      "ament": 3809,
      "cont": 3810,
      "Ġdeal": 3811,
      "osa": 3812,
      "ĠAng": 3813,
      "itable": 3814,
      "Ġ2001": 3815,
      "Ġmental": 3816,
      "ald": 3817,
      "cohol": 3818,
      "Ġenter": 3819,
      "Ġshowed": 3820,
      "Ġtox": 3821,
      "Ġsolution": 3822,
      "Ġleaves": 3823,
      "ĠSee": 3824,
      "Some": 3825,
      "Ġemissions": 3826,
      "iny": 3827,
      "Ġrepe": 3828,
      "Un": 3829,
      "ologist": 3830,
      "ĠCollege": 3831,
      "Ġthinking": 3832,
      "esc": 3833,
      "iments": 3834,
      "ĠBecause": 3835,
      "Ġcommercial": 3836,
      "ellig": 3837,
      "Ġbeaut": 3838,
      "Ġapplied": 3839,
      "Ġregions": 3840,
      "Ġworked": 3841,
      "cast": 3842,
      "Ġbenefit": 3843,
      "pped": 3844,
      "ĠCO": 3845,
      "ĠGovernment": 3846,
      "Ġchanged": 3847,
      "Ġbound": 3848,
      "Ġleave": 3849,
      "ĠThen": 3850,
      "ĠOff": 3851,
      "Ġcop": 3852,
      "ĠMuseum": 3853,
      "Ġcoming": 3854,
      "90": 3855,
      "Ġenjoy": 3856,
      "ĠRef": 3857,
      "fort": 3858,
      "Ġlat": 3859,
      "pris": 3860,
      "Ġmis": 3861,
      "Ġsac": 3862,
      "osy": 3863,
      "Ġthousands": 3864,
      "With": 3865,
      "Ġseven": 3866,
      "Ġpractices": 3867,
      "Ġpurch": 3868,
      "ĠAccording": 3869,
      "pir": 3870,
      "ĠWater": 3871,
      "ĠRev": 3872,
      "ogen": 3873,
      "Ġexhib": 3874,
      "ĠMod": 3875,
      "ĠService": 3876,
      "Ġcompletely": 3877,
      "Ġcities": 3878,
      "Ġinteresting": 3879,
      "Ġfinancial": 3880,
      "Ġmap": 3881,
      "Ġexpand": 3882,
      "rick": 3883,
      "Ġequal": 3884,
      "ĠMor": 3885,
      "Ar": 3886,
      "Ġtrying": 3887,
      "Ġradio": 3888,
      "Ġ+": 3889,
      "cles": 3890,
      "wards": 3891,
      "Ġcommonly": 3892,
      "ĠLord": 3893,
      "que": 3894,
      "Ġstaff": 3895,
      "Ġdevices": 3896,
      "Ġreasons": 3897,
      "ĠMars": 3898,
      "Ġ2002": 3899,
      "eff": 3900,
      "ĠFound": 3901,
      "Ġcateg": 3902,
      "cip": 3903,
      "Ġbelief": 3904,
      "ĠPaul": 3905,
      "Ġpow": 3906,
      "Ġmoved": 3907,
      "ĠAlso": 3908,
      "Ġexisting": 3909,
      "Ġgoes": 3910,
      "Ġexamples": 3911,
      "Ġelement": 3912,
      "Ġopportunity": 3913,
      "ologists": 3914,
      "Ġroad": 3915,
      "Ġseparate": 3916,
      "Ġstream": 3917,
      "Ġiniti": 3918,
      "Ġconstruct": 3919,
      "Ġlimit": 3920,
      "Ġapproximately": 3921,
      "ĠInter": 3922,
      "Ġdirection": 3923,
      "ĠFl": 3924,
      "Ġpresence": 3925,
      "HE": 3926,
      "Ġnative": 3927,
      "Ġconstant": 3928,
      "Ġusers": 3929,
      "Ġrat": 3930,
      "Ġswe": 3931,
      "co": 3932,
      "hors": 3933,
      "Ġfaith": 3934,
      "ida": 3935,
      "35": 3936,
      "Ġeating": 3937,
      "uls": 3938,
      "'ve": 3939,
      "rops": 3940,
      "Ġillness": 3941,
      "ĠHere": 3942,
      "icip": 3943,
      "ĠNow": 3944,
      "with": 3945,
      "ĠOb": 3946,
      "related": 3947,
      "ĠBra": 3948,
      "Ġnor": 3949,
      "New": 3950,
      "Ġeducational": 3951,
      "Ġeverything": 3952,
      "Ġdistance": 3953,
      "Ġcitizens": 3954,
      "Ġmiss": 3955,
      "ero": 3956,
      "Ġautom": 3957,
      "Ġassist": 3958,
      "Ġjournal": 3959,
      "pire": 3960,
      "Ġfemale": 3961,
      "ibly": 3962,
      "Ġunit": 3963,
      "Ġsuggests": 3964,
      "Ġobserved": 3965,
      "Ġpresented": 3966,
      "Ġmer": 3967,
      "Ph": 3968,
      "idel": 3969,
      "Ġshape": 3970,
      "ector": 3971,
      "Ġpopulations": 3972,
      "78": 3973,
      "Ġsem": 3974,
      "Ġgene": 3975,
      "ĠGeorge": 3976,
      "Ġpowerful": 3977,
      "enge": 3978,
      "Ġcarried": 3979,
      "ĠThus": 3980,
      "Ġbelieved": 3981,
      "bed": 3982,
      "Ġprofessional": 3983,
      "eared": 3984,
      "Ġcreating": 3985,
      "'ll": 3986,
      "Ġtreated": 3987,
      "Ġocean": 3988,
      "ĠTexas": 3989,
      "Ġbreat": 3990,
      "ĠAir": 3991,
      "Ġmag": 3992,
      "Ġmax": 3993,
      "icate": 3994,
      "ĠCur": 3995,
      "Ġpicture": 3996,
      "Ġrich": 3997,
      "Ġprice": 3998,
      "Ġcontract": 3999,
      "Ġevalu": 4000,
      "ĠJapanese": 4001,
      "Ġwhom": 4002,
      "Ġgir": 4003,
      "Ġ29": 4004,
      "ĠAre": 4005,
      "Ġdidn": 4006,
      "Ġpoly": 4007,
      "Ġrob": 4008,
      "Ġcapacity": 4009,
      "Ġtrad": 4010,
      "Ġestimated": 4011,
      "ĠJust": 4012,
      "Ġplans": 4013,
      "ĠHuman": 4014,
      "rehens": 4015,
      "ett": 4016,
      "Ġtrack": 4017,
      "ET": 4018,
      "erate": 4019,
      "Ġmoving": 4020,
      "Ġtissue": 4021,
      "Ġdoub": 4022,
      "Ġjoint": 4023,
      "raw": 4024,
      "Ġtum": 4025,
      "ht": 4026,
      "Ġkilled": 4027,
      "ĠProject": 4028,
      "Ġnoted": 4029,
      "ĠTheir": 4030,
      "rome": 4031,
      "45": 4032,
      "Ġcommunication": 4033,
      "Ġsuppl": 4034,
      "Ġphysic": 4035,
      "Ġcolle": 4036,
      "Ġparty": 4037,
      "ĠPlan": 4038,
      "Ġsymbol": 4039,
      "Ġprofessor": 4040,
      "Ġdefined": 4041,
      "Ġcustom": 4042,
      "Ġspect": 4043,
      "Ġassign": 4044,
      "ĠVirgin": 4045,
      "ĠGreek": 4046,
      "orial": 4047,
      "Ġstrength": 4048,
      "Ġsouthern": 4049,
      "ĠISBN": 4050,
      "mark": 4051,
      "essel": 4052,
      "Ġantib": 4053,
      "isher": 4054,
      "Ġnote": 4055,
      "All": 4056,
      "Ġvia": 4057,
      "ĠMiss": 4058,
      "ean": 4059,
      "iable": 4060,
      "Ġenh": 4061,
      "Ġarchitect": 4062,
      "Ġreleased": 4063,
      "ĠBlack": 4064,
      "ĠRead": 4065,
      "apers": 4066,
      "Ġeventually": 4067,
      "Ġspring": 4068,
      "Ġfunctions": 4069,
      "Ġincor": 4070,
      "Ġhighest": 4071,
      "ago": 4072,
      "Ġmedicine": 4073,
      "imens": 4074,
      "ĠFin": 4075,
      "ĠInst": 4076,
      "ĠLa": 4077,
      "Ġhom": 4078,
      "While": 4079,
      "Ġfully": 4080,
      "ken": 4081,
      "Ġorganizations": 4082,
      "ĠMedical": 4083,
      "ĠNews": 4084,
      "Ġfigure": 4085,
      "ĠEach": 4086,
      "Ġfields": 4087,
      "Ġwond": 4088,
      "Ġincreases": 4089,
      "Ġtruth": 4090,
      "roup": 4091,
      "ĠPeople": 4092,
      "Ġreference": 4093,
      "Ġcontext": 4094,
      "acific": 4095,
      "ĠRel": 4096,
      "iant": 4097,
      "Ġdecades": 4098,
      "Ġnorthern": 4099,
      "Ġresource": 4100,
      "Ġsugar": 4101,
      "ĠMount": 4102,
      "lick": 4103,
      "ĠMexico": 4104,
      "iverse": 4105,
      "Ġtransfer": 4106,
      "uild": 4107,
      "ĠLou": 4108,
      "abilities": 4109,
      "Ġinstance": 4110,
      "Ġrelease": 4111,
      "ĠDec": 4112,
      "Ġbra": 4113,
      "Ġtrib": 4114,
      "Ġalt": 4115,
      "ĠRich": 4116,
      "Ġslight": 4117,
      "Ġmaintain": 4118,
      "ĠDem": 4119,
      "force": 4120,
      "Americ": 4121,
      "itz": 4122,
      "ĠAss": 4123,
      "ocol": 4124,
      "ĠIsland": 4125,
      "Ġcru": 4126,
      "Ġfactor": 4127,
      "leg": 4128,
      "Ġblue": 4129,
      "Ġbran": 4130,
      "Ġlived": 4131,
      "Ġheavy": 4132,
      "Res": 4133,
      "Ġmale": 4134,
      "Ġconducted": 4135,
      "ii": 4136,
      "Ġconservation": 4137,
      "ux": 4138,
      "ped": 4139,
      "Ġgeneration": 4140,
      "Ġchance": 4141,
      "cers": 4142,
      "Ġ1990": 4143,
      "Ġwest": 4144,
      "Ġpatterns": 4145,
      "ĠSen": 4146,
      "rupt": 4147,
      "Ġdistribution": 4148,
      "Ġimmediately": 4149,
      "Ġoverall": 4150,
      "Ġmoment": 4151,
      "iance": 4152,
      "Ġemphas": 4153,
      "Ġfruit": 4154,
      "ĠCourt": 4155,
      "west": 4156,
      "Ġannual": 4157,
      "Ġcand": 4158,
      "Ġfavor": 4159,
      "Ġcampaign": 4160,
      "Ġmeeting": 4161,
      "Ġfeature": 4162,
      "arge": 4163,
      "Ġdetails": 4164,
      "Ġfilm": 4165,
      "Ġincome": 4166,
      "road": 4167,
      "Ad": 4168,
      "ĠJer": 4169,
      "Ġworth": 4170,
      "ĠDevelopment": 4171,
      "33": 4172,
      "Ġminor": 4173,
      "Ġweak": 4174,
      "Ġactual": 4175,
      "Ġtou": 4176,
      "Ġexpress": 4177,
      "Ġgenes": 4178,
      "Ġbattle": 4179,
      "za": 4180,
      "ĠChildren": 4181,
      "Ġturned": 4182,
      "Ġsigns": 4183,
      "Ġflood": 4184,
      "ams": 4185,
      "Ġdiscussion": 4186,
      "ĠMedicine": 4187,
      "Ġrunning": 4188,
      "Ġvisual": 4189,
      "astern": 4190,
      "Ġgrant": 4191,
      "Ġtub": 4192,
      "Ġinstruct": 4193,
      "Ġindustrial": 4194,
      "ĠSpace": 4195,
      "See": 4196,
      "clus": 4197,
      "Ġ80": 4198,
      "Ġterrit": 4199,
      "Ġactions": 4200,
      "Ġunivers": 4201,
      "Ġsexual": 4202,
      "Ġoperations": 4203,
      "that": 4204,
      "Ġclinical": 4205,
      "ects": 4206,
      "Ġinsect": 4207,
      "Ġfig": 4208,
      "ygen": 4209,
      "Ġfresh": 4210,
      "Ġstories": 4211,
      "Ġphen": 4212,
      "Ġbox": 4213,
      "Ġteach": 4214,
      "After": 4215,
      "pat": 4216,
      "Ġintroduced": 4217,
      "Ġdisorder": 4218,
      "ander": 4219,
      "Ġexplain": 4220,
      "respond": 4221,
      "ĠAv": 4222,
      "Ġign": 4223,
      "Ġproperties": 4224,
      "ĠFore": 4225,
      "ĠNet": 4226,
      "Ġpersons": 4227,
      "Ġacadem": 4228,
      "Ġserve": 4229,
      "win": 4230,
      "Ġvessel": 4231,
      "Ġletter": 4232,
      "Ġfriend": 4233,
      "Ġstructures": 4234,
      "Ġperfect": 4235,
      "ares": 4236,
      "Ġupper": 4237,
      "Ġcreation": 4238,
      "Ġdatab": 4239,
      "Ġgiving": 4240,
      "Ġpiece": 4241,
      "ĠBer": 4242,
      "Ġindependent": 4243,
      "Ġmouth": 4244,
      "ĠOur": 4245,
      "porary": 4246,
      "75": 4247,
      "olved": 4248,
      "RE": 4249,
      "Ġoffers": 4250,
      "ĠUse": 4251,
      "Ġconv": 4252,
      "Ġplanning": 4253,
      "Ġatmosphere": 4254,
      "Ġliqu": 4255,
      "ĠSpe": 4256,
      "Ġserved": 4257,
      "essor": 4258,
      "Ġreligion": 4259,
      "ault": 4260,
      "Â°": 4261,
      "Ġtro": 4262,
      "Ġphilosoph": 4263,
      "gra": 4264,
      "Ġcry": 4265,
      "ĠChe": 4266,
      "Ġarticles": 4267,
      "Ġwrong": 4268,
      "ĠLear": 4269,
      "Ġfamous": 4270,
      "Ġeveryone": 4271,
      "Ġtransl": 4272,
      "Ġbone": 4273,
      "ifically": 4274,
      "ĠSun": 4275,
      "Ġcook": 4276,
      "Ġcollabor": 4277,
      "Ġgraph": 4278,
      "Ġstyle": 4279,
      "Ġreprodu": 4280,
      "Ġclearly": 4281,
      "Ġurban": 4282,
      "ensus": 4283,
      "Ġpric": 4284,
      "Ġap": 4285,
      "Ġconsumption": 4286,
      "ortion": 4287,
      "change": 4288,
      "which": 4289,
      "Ġmal": 4290,
      "Ġdegrees": 4291,
      "RO": 4292,
      "Ġcovered": 4293,
      "Ġisn": 4294,
      "itness": 4295,
      "Ġsurgery": 4296,
      "Ġiron": 4297,
      "ager": 4298,
      "key": 4299,
      "Ġforward": 4300,
      "berg": 4301,
      "Ġcoal": 4302,
      "Ġboard": 4303,
      "Ġqual": 4304,
      "Ġexperiment": 4305,
      "Ġhousehold": 4306,
      "Ġdivid": 4307,
      "Ġtemperatures": 4308,
      "Ġstim": 4309,
      "ĠAtl": 4310,
      "ĠSpanish": 4311,
      "Ġchoice": 4312,
      "Ġopin": 4313,
      "Ġremoved": 4314,
      "Ġrot": 4315,
      "Ġlearned": 4316,
      "Ġmob": 4317,
      "Ġaccur": 4318,
      "Ġchoose": 4319,
      "ĠArmy": 4320,
      "Is": 4321,
      "Ġmathemat": 4322,
      "ĠCivil": 4323,
      "ample": 4324,
      "Ġauthors": 4325,
      "ĠMat": 4326,
      "Ġbuildings": 4327,
      "ĠTur": 4328,
      "Ġwaters": 4329,
      "Ġattract": 4330,
      "orage": 4331,
      "Ġwatch": 4332,
      "ĠHen": 4333,
      "AM": 4334,
      "stronom": 4335,
      "Ġ1999": 4336,
      "Ġpages": 4337,
      "ias": 4338,
      "ĠPort": 4339,
      "ĠCatholic": 4340,
      "Ġfrequently": 4341,
      "ĠCommission": 4342,
      "Ġmachine": 4343,
      "Ġelim": 4344,
      "ĠMart": 4345,
      "Äģ": 4346,
      "Ġdram": 4347,
      "Ġdistinct": 4348,
      "ĠRobert": 4349,
      "Ġalcohol": 4350,
      "Ġimmune": 4351,
      "36": 4352,
      "Ġrace": 4353,
      "gl": 4354,
      "Ġperformed": 4355,
      "Ġwidely": 4356,
      "name": 4357,
      "Ġcontrast": 4358,
      "Ġvision": 4359,
      "Ġsitu": 4360,
      "Ġreb": 4361,
      "Ġlib": 4362,
      "ĠIslam": 4363,
      "Ġproposed": 4364,
      "Ġtechnologies": 4365,
      "Ġcircum": 4366,
      "Ġalternative": 4367,
      "ĠEv": 4368,
      "Ġrul": 4369,
      "aste": 4370,
      "met": 4371,
      "Ġple": 4372,
      "Ġliterature": 4373,
      "Ġeast": 4374,
      "Ġsteps": 4375,
      "Ġextremely": 4376,
      "Ġbehavi": 4377,
      "vision": 4378,
      "Ġunits": 4379,
      "oice": 4380,
      "bert": 4381,
      "Ġefficient": 4382,
      "igen": 4383,
      "Ġâ": 4384,
      "ees": 4385,
      "Ġresistance": 4386,
      "Ġinitial": 4387,
      "ĠMic": 4388,
      "ĠThomas": 4389,
      "ĠEnergy": 4390,
      "Ġcomponents": 4391,
      "Ġreached": 4392,
      "ĠInformation": 4393,
      "Ġdyn": 4394,
      "ĠDon": 4395,
      "Ġsav": 4396,
      "eces": 4397,
      "tical": 4398,
      "ĠLibrary": 4399,
      "zz": 4400,
      "Ġarr": 4401,
      "Ġbank": 4402,
      "aus": 4403,
      "nam": 4404,
      "ching": 4405,
      "Ġabsor": 4406,
      "ĠHol": 4407,
      "Ġnotes": 4408,
      "Ġremained": 4409,
      "Ġsoci": 4410,
      "ĠAut": 4411,
      "Ġremember": 4412,
      "pective": 4413,
      "Ġ189": 4414,
      "Ġfert": 4415,
      "Ġvolunt": 4416,
      "Ġsample": 4417,
      "Ġdetermined": 4418,
      "Ġhair": 4419,
      "ĠPacific": 4420,
      "Ġelectricity": 4421,
      "aped": 4422,
      "ype": 4423,
      "PS": 4424,
      "Ġtask": 4425,
      "Ġcombination": 4426,
      "Ġmilk": 4427,
      "Ġbottom": 4428,
      "uit": 4429,
      "ĠSocial": 4430,
      "Ġstrugg": 4431,
      "ĠBay": 4432,
      "Ġrequirements": 4433,
      "Ġlung": 4434,
      "Ġvary": 4435,
      "Ġhuge": 4436,
      "Ġfailure": 4437,
      "ounced": 4438,
      "Ġinfluen": 4439,
      "Ġinform": 4440,
      "riage": 4441,
      "ĠUnder": 4442,
      "uted": 4443,
      "ĠMr": 4444,
      "Ġfreedom": 4445,
      "Ġnumerous": 4446,
      "ĠPhys": 4447,
      "erences": 4448,
      "Ġchief": 4449,
      "ĠSer": 4450,
      "Ġisland": 4451,
      "Ġsquare": 4452,
      "ael": 4453,
      "ocal": 4454,
      "Ġinh": 4455,
      "well": 4456,
      "Ġbodies": 4457,
      "Ġspeech": 4458,
      "otes": 4459,
      "Ġauthority": 4460,
      "atically": 4461,
      "Ġdigital": 4462,
      "Ġship": 4463,
      "Ġguide": 4464,
      "Ġtrou": 4465,
      "Ġoccurred": 4466,
      "Ġarmy": 4467,
      "Ġdie": 4468,
      "ĠDi": 4469,
      "rows": 4470,
      "Be": 4471,
      "Ġofficials": 4472,
      "Ġsignificantly": 4473,
      "Ġpick": 4474,
      "cycl": 4475,
      "Ġpartners": 4476,
      "Ġconclud": 4477,
      "Ġapply": 4478,
      "oyal": 4479,
      "Ġsave": 4480,
      "Sh": 4481,
      "ria": 4482,
      "ĠAsia": 4483,
      "ndrome": 4484,
      "38": 4485,
      "cipl": 4486,
      "ĠArab": 4487,
      "They": 4488,
      "Ġglass": 4489,
      "Ġsand": 4490,
      "Ġitems": 4491,
      "ras": 4492,
      "yd": 4493,
      "ĠOver": 4494,
      "Ġwin": 4495,
      "Ġwear": 4496,
      "Ġdisp": 4497,
      "Ġburn": 4498,
      "Ġappoint": 4499,
      "Ġmessage": 4500,
      "198": 4501,
      "osystem": 4502,
      "rog": 4503,
      "ĠJud": 4504,
      "ĠFlor": 4505,
      "Ġresulting": 4506,
      "ĠSmith": 4507,
      "rations": 4508,
      "anging": 4509,
      "Ġplease": 4510,
      "och": 4511,
      "Ġfinding": 4512,
      "Ġgain": 4513,
      "ĠMass": 4514,
      "igration": 4515,
      "Ġdirector": 4516,
      "Ġkid": 4517,
      "nic": 4518,
      "Ġnovel": 4519,
      "Ġpolicies": 4520,
      "ĠDirect": 4521,
      "Ġcounter": 4522,
      "ĠLabor": 4523,
      "Ġstation": 4524,
      "Ġreferred": 4525,
      "Ġoperation": 4526,
      "fl": 4527,
      "ĠTest": 4528,
      "Ġinterpret": 4529,
      "ville": 4530,
      "Ġfoss": 4531,
      "CO": 4532,
      "Ġpi": 4533,
      "ĠWhite": 4534,
      "Ġconfirm": 4535,
      "rates": 4536,
      "Ġthick": 4537,
      "Ġ70": 4538,
      "Ġoxygen": 4539,
      "Ġcorrespond": 4540,
      "ĠBas": 4541,
      "Ġ1998": 4542,
      "Ġstatement": 4543,
      "wood": 4544,
      "Ġclos": 4545,
      "ressive": 4546,
      "med": 4547,
      "Ġbrother": 4548,
      "Ġkept": 4549,
      "oting": 4550,
      "iring": 4551,
      "48": 4552,
      "aughter": 4553,
      "Ġspent": 4554,
      "poses": 4555,
      "Ġ90": 4556,
      "ios": 4557,
      "ĠMil": 4558,
      "umn": 4559,
      "othes": 4560,
      "ributed": 4561,
      "unction": 4562,
      "Ġdisorders": 4563,
      "itors": 4564,
      "ado": 4565,
      "Ġcollege": 4566,
      "ĠLatin": 4567,
      "ĠOrgan": 4568,
      "Ġorganic": 4569,
      "Ġupd": 4570,
      "alle": 4571,
      "Ġcra": 4572,
      "Ġprinciples": 4573,
      "Ġwanted": 4574,
      "Ġround": 4575,
      "opes": 4576,
      "Ġpreviously": 4577,
      "ĠIts": 4578,
      "ĠCarol": 4579,
      "Ġconvers": 4580,
      "ĠJose": 4581,
      "Ġhomes": 4582,
      "Ġmo": 4583,
      "atric": 4584,
      "Ġexcess": 4585,
      "ĠOffice": 4586,
      "Ġsupported": 4587,
      "ĠSub": 4588,
      "htm": 4589,
      "ĠVirginia": 4590,
      "Ġviolence": 4591,
      "That": 4592,
      "Ġvolume": 4593,
      "Ġdetect": 4594,
      "ĠMark": 4595,
      "From": 4596,
      "Ġdrive": 4597,
      "ĠOld": 4598,
      "Ġoutput": 4599,
      "ĠMac": 4600,
      "Ġinstitutions": 4601,
      "Ġbecoming": 4602,
      "Ġcomment": 4603,
      "oper": 4604,
      "iful": 4605,
      "Ġbelong": 4606,
      "Ġhour": 4607,
      "raction": 4608,
      "ĠBritain": 4609,
      "Ġprepar": 4610,
      "cript": 4611,
      "ĠDiv": 4612,
      "Ġfine": 4613,
      "ĠFood": 4614,
      "vis": 4615,
      "Ġisol": 4616,
      "Ġexistence": 4617,
      "rence": 4618,
      "Ġintended": 4619,
      "Ġcharacteristics": 4620,
      "Ġstars": 4621,
      "Ġreturned": 4622,
      "ĠSou": 4623,
      "Ġreplace": 4624,
      "ĠMuslim": 4625,
      "ĠCD": 4626,
      "ĠCentral": 4627,
      "Ġsecret": 4628,
      "Ġaspects": 4629,
      "Ġhospital": 4630,
      "ij": 4631,
      "ception": 4632,
      "Ġhelped": 4633,
      "Ġinternal": 4634,
      "Ġconcern": 4635,
      "Ġcycle": 4636,
      "ague": 4637,
      "ĠWind": 4638,
      "Ġtour": 4639,
      "Ġopportunities": 4640,
      "ĠLouis": 4641,
      "field": 4642,
      "Ġwet": 4643,
      "ĠSam": 4644,
      "ĠFoundation": 4645,
      "Ġclasses": 4646,
      "iveness": 4647,
      "aker": 4648,
      "ishes": 4649,
      "ĠMal": 4650,
      "Ġwestern": 4651,
      "Ġ35": 4652,
      "Ġbed": 4653,
      "Ġsort": 4654,
      "Ġgod": 4655,
      "Ġlic": 4656,
      "Ġ188": 4657,
      "rian": 4658,
      "ĠAcadem": 4659,
      "Ġmere": 4660,
      "chers": 4661,
      "Ġgrass": 4662,
      "Ġmetal": 4663,
      "van": 4664,
      "ĠDise": 4665,
      "Ġtrend": 4666,
      "Ġapparent": 4667,
      "Ã¡": 4668,
      "Ġdoll": 4669,
      "Ġhear": 4670,
      "Ġstrategies": 4671,
      "ĠGra": 4672,
      "ingly": 4673,
      "Ġassessment": 4674,
      "Ġcompleted": 4675,
      "Ġded": 4676,
      "Ġadvanced": 4677,
      "crib": 4678,
      "Ġhappen": 4679,
      "Ġquar": 4680,
      "Ġexposed": 4681,
      "Ġanyone": 4682,
      "Ġmostly": 4683,
      "rum": 4684,
      "ota": 4685,
      "ĠWork": 4686,
      "Ġclassroom": 4687,
      "Ġbalance": 4688,
      "Ġwealth": 4689,
      "Ġdecided": 4690,
      "ormally": 4691,
      "Ġcere": 4692,
      "ball": 4693,
      "Ġintellig": 4694,
      "Ġchanging": 4695,
      "Ġtim": 4696,
      "Ġrecommended": 4697,
      "mal": 4698,
      "Ġnations": 4699,
      "Ġforced": 4700,
      "Ġheard": 4701,
      "Ġvictim": 4702,
      "Ġlinks": 4703,
      "CC": 4704,
      "Ġprefer": 4705,
      "Ġdecisions": 4706,
      "Ab": 4707,
      "Ġagg": 4708,
      "ĠColumb": 4709,
      "Ġlargely": 4710,
      "Ġfif": 4711,
      "Ġextent": 4712,
      "US": 4713,
      "Ġkill": 4714,
      "Ġbrief": 4715,
      "Ġbill": 4716,
      "istan": 4717,
      "ĠWild": 4718,
      "Ġprepared": 4719,
      "Ġlayer": 4720,
      "icit": 4721,
      "Ġfarmers": 4722,
      "ĠUK": 4723,
      "Ġenem": 4724,
      "kin": 4725,
      "Ġpun": 4726,
      "Ġinnov": 4727,
      "ulum": 4728,
      "Ġgarden": 4729,
      "Ġcoord": 4730,
      "Ġkm": 4731,
      "Ġstore": 4732,
      "uration": 4733,
      "Ġsufficient": 4734,
      "Ġmanner": 4735,
      "Ġinfections": 4736,
      "roph": 4737,
      "Although": 4738,
      "Ġdro": 4739,
      "ĠBel": 4740,
      "roke": 4741,
      "39": 4742,
      "nel": 4743,
      "Ġvaccine": 4744,
      "Ġemail": 4745,
      "ĠNav": 4746,
      "Ġsignal": 4747,
      "Ġpal": 4748,
      "olid": 4749,
      "Ġexactly": 4750,
      "ĠDist": 4751,
      "ĠFre": 4752,
      "ĠCharles": 4753,
      "Ġamounts": 4754,
      "Ġobvious": 4755,
      "rant": 4756,
      "Ġcomprehens": 4757,
      "Ġsatell": 4758,
      "arrow": 4759,
      "Ġbackground": 4760,
      "eties": 4761,
      "ĠSov": 4762,
      "pal": 4763,
      "Ġstarting": 4764,
      "Ġhur": 4765,
      "Ġpurposes": 4766,
      "34": 4767,
      "rans": 4768,
      "Ġconnection": 4769,
      "Ġseed": 4770,
      "oo": 4771,
      "ulating": 4772,
      "Ġadvantage": 4773,
      "Ġprimarily": 4774,
      "Ġsusp": 4775,
      "Ġsurpris": 4776,
      "Ġcausing": 4777,
      "ĠLet": 4778,
      "Ġload": 4779,
      "Ġlanguages": 4780,
      "Ġsaying": 4781,
      "Ġinvolve": 4782,
      "Ġinterested": 4783,
      "Ġchallenge": 4784,
      "Ġunf": 4785,
      "Ġpark": 4786,
      "ented": 4787,
      "Ġconver": 4788,
      "ctic": 4789,
      "Ġbird": 4790,
      "Ġclick": 4791,
      "Ġreality": 4792,
      "Ġwww": 4793,
      "Ġsolid": 4794,
      "Con": 4795,
      "Ġexpression": 4796,
      "Ġexperts": 4797,
      "ĠBook": 4798,
      "Ġdu": 4799,
      "Ġincorpor": 4800,
      "Ġtechnical": 4801,
      "ÃŃ": 4802,
      "akers": 4803,
      "ĠWhy": 4804,
      "ĠEnvironmental": 4805,
      "ĠHistor": 4806,
      "Ġengineering": 4807,
      "Ġgoals": 4808,
      "Ġrecorded": 4809,
      "Ġindicate": 4810,
      "ĠLake": 4811,
      "Ġfinally": 4812,
      "amental": 4813,
      "onic": 4814,
      "what": 4815,
      "37": 4816,
      "lements": 4817,
      "Ġtechnique": 4818,
      "Ġdepression": 4819,
      "Ġdescribe": 4820,
      "tle": 4821,
      "Ġcharge": 4822,
      "Ġ1997": 4823,
      "urance": 4824,
      "Ġfol": 4825,
      "Ġsnow": 4826,
      "RI": 4827,
      "ĠFederal": 4828,
      "Ġnutri": 4829,
      "ĠSal": 4830,
      "Ġfort": 4831,
      "onomic": 4832,
      "Ġregarding": 4833,
      "ya": 4834,
      "Ġsetting": 4835,
      "ĠTechnology": 4836,
      "Ġhabitat": 4837,
      "Ġsubstant": 4838,
      "Ġprices": 4839,
      "Ġoptions": 4840,
      "Ġbuy": 4841,
      "col": 4842,
      "ĠIr": 4843,
      "Ġoffered": 4844,
      "state": 4845,
      "Ġconflict": 4846,
      "ishing": 4847,
      "Ġconcerns": 4848,
      "ilit": 4849,
      "Ġremove": 4850,
      "....": 4851,
      "Ġstorage": 4852,
      "Ġaid": 4853,
      "Ġ>": 4854,
      "Ġcris": 4855,
      "Ġ*": 4856,
      "ĠFranc": 4857,
      "idelines": 4858,
      "Ġnan": 4859,
      "Ġprocedure": 4860,
      "Ġwife": 4861,
      "Ġmeant": 4862,
      "More": 4863,
      "Ġexplore": 4864,
      "Ġmuscle": 4865,
      "Many": 4866,
      "Ġchallenges": 4867,
      "Ġmel": 4868,
      "Ġdiagnosis": 4869,
      "Ġcombined": 4870,
      "ĠDef": 4871,
      "Ġrail": 4872,
      "Ġagricultural": 4873,
      "Ġcontinues": 4874,
      "Ġsynt": 4875,
      "Ġkil": 4876,
      "Ġappeared": 4877,
      "cest": 4878,
      "ĠStand": 4879,
      "Ġraised": 4880,
      "oking": 4881,
      "Most": 4882,
      "Ġmort": 4883,
      "Other": 4884,
      "Ġcore": 4885,
      "Ġphenomen": 4886,
      "utive": 4887,
      "Ġchemicals": 4888,
      "works": 4889,
      "Ġfiles": 4890,
      "itage": 4891,
      "cyclop": 4892,
      "Ġparticipants": 4893,
      "Ġdefinition": 4894,
      "Ġparticles": 4895,
      "Ġinput": 4896,
      "Ġbiological": 4897,
      "Ġpil": 4898,
      "ossible": 4899,
      "Ġnutrition": 4900,
      "cience": 4901,
      "otic": 4902,
      "Ġfacilities": 4903,
      "burg": 4904,
      "tes": 4905,
      "Ġperman": 4906,
      "Ġpret": 4907,
      "Ġ<": 4908,
      "Ġtoxic": 4909,
      "Ġgreatest": 4910,
      "Ġpollution": 4911,
      "ping": 4912,
      "ructure": 4913,
      "tion": 4914,
      "Ġnav": 4915,
      "Ġcast": 4916,
      "Ġprison": 4917,
      "Ġyourself": 4918,
      "Ġmotion": 4919,
      "Ġmanufacture": 4920,
      "ĠLife": 4921,
      "ĠWil": 4922,
      "Ġrisks": 4923,
      "Ġportion": 4924,
      "Ġscen": 4925,
      "Ġsamples": 4926,
      "Ġsuggested": 4927,
      "ĠMet": 4928,
      "Ġgets": 4929,
      "100": 4930,
      "Cl": 4931,
      "44": 4932,
      "Ġimproved": 4933,
      "Ġdetailed": 4934,
      "Ġcenturies": 4935,
      "Ġchronic": 4936,
      "zing": 4937,
      "Ġready": 4938,
      "ibl": 4939,
      "oxide": 4940,
      "Ġbatter": 4941,
      "Ġweap": 4942,
      "Ġbegins": 4943,
      "ĠCle": 4944,
      "Ġvitamin": 4945,
      "add": 4946,
      "ears": 4947,
      "ĠMont": 4948,
      "ĠBen": 4949,
      ".|": 4950,
      "Ġencourage": 4951,
      "ĠAD": 4952,
      "ĠMD": 4953,
      "Ġagencies": 4954,
      "Ġrequest": 4955,
      "Ġconnect": 4956,
      "Ġunderst": 4957,
      "32": 4958,
      "Ġwarming": 4959,
      "Ġgrand": 4960,
      "Ġreducing": 4961,
      "ĠSea": 4962,
      "ags": 4963,
      "icial": 4964,
      "ĠScient": 4965,
      "Ġdiss": 4966,
      "Ġban": 4967,
      "EL": 4968,
      "65": 4969,
      "Ġreaction": 4970,
      "Ġshar": 4971,
      "Ġlinked": 4972,
      "Ġgal": 4973,
      "Ġformation": 4974,
      "standing": 4975,
      "Ġdangerous": 4976,
      "Ġdisapp": 4977,
      "Ġexcell": 4978,
      "ĠTwo": 4979,
      "hetic": 4980,
      "Ġsong": 4981,
      "pre": 4982,
      "Ġotherwise": 4983,
      "ortunately": 4984,
      "OS": 4985,
      "Ġoperating": 4986,
      "ĠMiddle": 4987,
      "Ġconnected": 4988,
      "ĠElect": 4989,
      "Ġemergency": 4990,
      "Ġmentioned": 4991,
      "Ġ185": 4992,
      "BC": 4993,
      "ĠCompany": 4994,
      "omin": 4995,
      "Ġleader": 4996,
      "Ġvast": 4997,
      "Ġinstall": 4998,
      "bal": 4999,
      "Ġexplan": 5000,
      "ĠFlorida": 5001,
      "Ġstudied": 5002,
      "Ġdocuments": 5003,
      "bi": 5004,
      "ĠSecond": 5005,
      "ey": 5006,
      "Ġdomestic": 5007,
      "Ġspot": 5008,
      "Ġadjust": 5009,
      "Ġyouth": 5010,
      "AP": 5011,
      "Ġ1980": 5012,
      "ixt": 5013,
      "Ġcollected": 5014,
      "Ġsyn": 5015,
      "Ġalg": 5016,
      "Ġlibrary": 5017,
      "Ġsubsequ": 5018,
      "lig": 5019,
      "mp": 5020,
      "board": 5021,
      "rolog": 5022,
      "rich": 5023,
      "Ġinfl": 5024,
      "des": 5025,
      "Ġkinds": 5026,
      "Ġrecognized": 5027,
      "Ġfrequency": 5028,
      "Ġbright": 5029,
      "Ġmulti": 5030,
      "According": 5031,
      "OT": 5032,
      "ĠNor": 5033,
      "Com": 5034,
      "Ġinjury": 5035,
      "Ġmeat": 5036,
      "Ġdiscover": 5037,
      "agues": 5038,
      "ĠHel": 5039,
      "ĠMem": 5040,
      "iled": 5041,
      "olars": 5042,
      "Ġdouble": 5043,
      "Ġrevolution": 5044,
      "Ġinstrument": 5045,
      "Ġroot": 5046,
      "Ġeasier": 5047,
      "point": 5048,
      "Ġeggs": 5049,
      "Ġbud": 5050,
      "ĠHenry": 5051,
      "olute": 5052,
      "Ġexperiences": 5053,
      "Ġtrig": 5054,
      "ifying": 5055,
      "ION": 5056,
      "ses": 5057,
      "Ġpractical": 5058,
      "ĠRights": 5059,
      "Ġsubjects": 5060,
      "Ġ#": 5061,
      "isation": 5062,
      "MS": 5063,
      "American": 5064,
      "Ġdistingu": 5065,
      "Ġpromote": 5066,
      "Ġconsult": 5067,
      "iling": 5068,
      "ĠPost": 5069,
      "Ġcontaining": 5070,
      "Ġecosystem": 5071,
      "Ġsed": 5072,
      "rust": 5073,
      "amily": 5074,
      "Ġthin": 5075,
      "Ġcredit": 5076,
      "osen": 5077,
      "Ġtrial": 5078,
      "RC": 5079,
      "Ġconvent": 5080,
      "Ġpul": 5081,
      "Ġmeasured": 5082,
      "Ġhundreds": 5083,
      "No": 5084,
      "rier": 5085,
      "Ġdiscovery": 5086,
      "Ġphase": 5087,
      "Ġowners": 5088,
      "ĠReview": 5089,
      "Ġcertainly": 5090,
      "ĠCommittee": 5091,
      "aks": 5092,
      "mat": 5093,
      "Ġ1996": 5094,
      "ĠSl": 5095,
      "Ġsen": 5096,
      "Ġdivided": 5097,
      "31": 5098,
      "Ġmorning": 5099,
      "Ġpray": 5100,
      "Ġtopic": 5101,
      "ocratic": 5102,
      "Ġletters": 5103,
      "Ġrenew": 5104,
      "Ġreduction": 5105,
      "IDS": 5106,
      "76": 5107,
      "omy": 5108,
      "aur": 5109,
      "oughly": 5110,
      "ellect": 5111,
      "Ġuniverse": 5112,
      "sembly": 5113,
      "eck": 5114,
      "ĠOp": 5115,
      "ND": 5116,
      "Ġclim": 5117,
      "Ġelectrical": 5118,
      "Ġhorm": 5119,
      "Ġmamm": 5120,
      "Ġjour": 5121,
      "ĠConstitution": 5122,
      "Ġobtained": 5123,
      "Ġlooks": 5124,
      "DF": 5125,
      "Ġtitle": 5126,
      "Ġyellow": 5127,
      "ĠAp": 5128,
      "Ġgames": 5129,
      "ston": 5130,
      "inating": 5131,
      "Ġrapidly": 5132,
      "Ġlooked": 5133,
      "ĠPri": 5134,
      "Ġfle": 5135,
      "Ġneighbor": 5136,
      "Ġdatabase": 5137,
      "Ġvul": 5138,
      "ĠQue": 5139,
      "Ġexpert": 5140,
      "Ġshowing": 5141,
      "unk": 5142,
      "Ġmoon": 5143,
      "Ġpieces": 5144,
      "Ġclaims": 5145,
      "ĠSoviet": 5146,
      "Ġlatter": 5147,
      "49": 5148,
      "verty": 5149,
      "Ġdial": 5150,
      "Ġacademic": 5151,
      "ĠSuch": 5152,
      "ĠBudd": 5153,
      "Ġdrinking": 5154,
      "Ġsoldiers": 5155,
      "ĠJoseph": 5156,
      "ĠBible": 5157,
      "osite": 5158,
      "Ġstem": 5159,
      "Ġpoverty": 5160,
      "Ġinvolves": 5161,
      "place": 5162,
      "ĠTer": 5163,
      "âĢĿ.": 5164,
      "ĠPers": 5165,
      "Ġseek": 5166,
      "Ġplayed": 5167,
      "active": 5168,
      "Now": 5169,
      "Ġefficiency": 5170,
      "band": 5171,
      "emic": 5172,
      "Ġslightly": 5173,
      "Ġindex": 5174,
      "inger": 5175,
      "pd": 5176,
      "Ġfelt": 5177,
      "Ġmist": 5178,
      "Ġheight": 5179,
      "Ġliquid": 5180,
      "Ġ1995": 5181,
      "500": 5182,
      "ĠÃ": 5183,
      "do": 5184,
      "lers": 5185,
      "Ġelev": 5186,
      "Ġgun": 5187,
      "Ġconcerned": 5188,
      "Ġfundamental": 5189,
      "ĠWomen": 5190,
      "fall": 5191,
      "Ġtested": 5192,
      "ĠNature": 5193,
      "Ġpros": 5194,
      "going": 5195,
      "Ġperiods": 5196,
      "Ġflight": 5197,
      "ĠOnce": 5198,
      "eters": 5199,
      "Ġgall": 5200,
      "Ġclosely": 5201,
      "ĠBro": 5202,
      "Ġtrust": 5203,
      "Ġhappens": 5204,
      "Ġtried": 5205,
      "ona": 5206,
      "Ġargument": 5207,
      "Ġfunding": 5208,
      "Ġhaz": 5209,
      "Ġtroops": 5210,
      "ĠRussian": 5211,
      "46": 5212,
      "Ġband": 5213,
      "Ġgovernments": 5214,
      "ML": 5215,
      "Ġselected": 5216,
      "gment": 5217,
      "Ġjobs": 5218,
      "ropical": 5219,
      "Ġchapter": 5220,
      "Ġchann": 5221,
      "ĠAlex": 5222,
      "Ġregional": 5223,
      "ship": 5224,
      "Ġtransform": 5225,
      "Ġinterview": 5226,
      "anges": 5227,
      "Ġmoral": 5228,
      "AD": 5229,
      "Ġinstruction": 5230,
      "ĠChic": 5231,
      "ĠSouthern": 5232,
      "Ġprinciple": 5233,
      "Ġfollows": 5234,
      "Ġdeaths": 5235,
      "Ġtypical": 5236,
      "Ġdut": 5237,
      "Ġsin": 5238,
      "Ġpolice": 5239,
      "rete": 5240,
      "Ġsend": 5241,
      "Ġmaster": 5242,
      "Ġknew": 5243,
      "Ġcrops": 5244,
      "Ġresponsibility": 5245,
      "oto": 5246,
      "ĠStudents": 5247,
      "Ġsyndrome": 5248,
      "Ġspl": 5249,
      "inet": 5250,
      "Ġrural": 5251,
      "47": 5252,
      "Gen": 5253,
      "Ġmotor": 5254,
      "Ġadvance": 5255,
      "Ġprocessing": 5256,
      "Ġstone": 5257,
      "Ġforests": 5258,
      "ache": 5259,
      ".;": 5260,
      "ĠTreat": 5261,
      "eria": 5262,
      "ĠBur": 5263,
      "Ġrelationships": 5264,
      "ĠBoth": 5265,
      "Ġdynam": 5266,
      "Ġ31": 5267,
      "ategy": 5268,
      "Ġinterests": 5269,
      "Ġsurrounding": 5270,
      "Ġcontrolled": 5271,
      "Ġtaught": 5272,
      "body": 5273,
      "Ġfell": 5274,
      "Ġexplained": 5275,
      "ĠSte": 5276,
      "uable": 5277,
      "Ġgar": 5278,
      "Ġancest": 5279,
      "ĠSum": 5280,
      "Ġmainly": 5281,
      "ĠKore": 5282,
      "ĠIll": 5283,
      "Ġexperienced": 5284,
      "ĠRem": 5285,
      "Ġcontem": 5286,
      "ĠMo": 5287,
      "acters": 5288,
      "born": 5289,
      "ĠGroup": 5290,
      "Ġmillions": 5291,
      "ded": 5292,
      "Ġdistrict": 5293,
      "Ġviews": 5294,
      "ĠSom": 5295,
      "Ġcogn": 5296,
      "Ġconcepts": 5297,
      "ĠPsych": 5298,
      "ĠOh": 5299,
      "Ġstrategy": 5300,
      "De": 5301,
      "reed": 5302,
      "riculum": 5303,
      "ĠKen": 5304,
      "Sp": 5305,
      "xi": 5306,
      "ĠControl": 5307,
      "Ġproperly": 5308,
      "Ġattacks": 5309,
      "Ġfacts": 5310,
      "celer": 5311,
      "from": 5312,
      "erves": 5313,
      "ĠOcean": 5314,
      "Ġneut": 5315,
      "ĠAdminist": 5316,
      "99": 5317,
      "ĠDan": 5318,
      "Ġlit": 5319,
      "Ġrelevant": 5320,
      "Ġeffectively": 5321,
      "Ġpip": 5322,
      "Ġadopted": 5323,
      "ictionary": 5324,
      "Ġwonder": 5325,
      "Ġexternal": 5326,
      "umber": 5327,
      "Ġresidents": 5328,
      "Ġresist": 5329,
      "Ġleads": 5330,
      "Ġ1970": 5331,
      "anged": 5332,
      "ĠToday": 5333,
      "ĠCamb": 5334,
      "atever": 5335,
      "ss": 5336,
      "Ġlatest": 5337,
      "Ġther": 5338,
      "Ġmonitoring": 5339,
      "Ġstated": 5340,
      "olf": 5341,
      "Ġaircraft": 5342,
      "ĠST": 5343,
      "Ġ45": 5344,
      "alian": 5345,
      "ĠStudies": 5346,
      "Ġhunt": 5347,
      "Ġtreatments": 5348,
      "rep": 5349,
      "Ġdiam": 5350,
      "ipped": 5351,
      "ĠReport": 5352,
      "Ġprofession": 5353,
      "Ġgrade": 5354,
      "Ġfluid": 5355,
      "othing": 5356,
      "Ġcalls": 5357,
      "Ġaccepted": 5358,
      "ĠCarolina": 5359,
      "Ġdespite": 5360,
      "ĠLand": 5361,
      "gal": 5362,
      "Ġoriginally": 5363,
      "Ġpaid": 5364,
      "Ġadvoc": 5365,
      "Ġplastic": 5366,
      "ĠPeter": 5367,
      "asure": 5368,
      "Ġteeth": 5369,
      "ĠClass": 5370,
      "Ġsides": 5371,
      "oral": 5372,
      "Ġallowing": 5373,
      "normal": 5374,
      "rus": 5375,
      "Ġstorm": 5376,
      "liam": 5377,
      "Ġconsists": 5378,
      "ĠDar": 5379,
      "Ġages": 5380,
      "Ġsalt": 5381,
      "iders": 5382,
      "ĠFrank": 5383,
      "resents": 5384,
      "Ġsatis": 5385,
      "ails": 5386,
      "Ġcomponent": 5387,
      "Ġaccompl": 5388,
      "Ġdepth": 5389,
      "Ġinches": 5390,
      "Ġvisible": 5391,
      "Ġmarine": 5392,
      "Ġexplains": 5393,
      "hi": 5394,
      "ĠAnn": 5395,
      "Ġonto": 5396,
      "ING": 5397,
      "ava": 5398,
      "ĠOx": 5399,
      "Ġfamiliar": 5400,
      "However": 5401,
      "Ġnarrow": 5402,
      "apes": 5403,
      "gov": 5404,
      "alse": 5405,
      "Ġmountain": 5406,
      "Ind": 5407,
      "Ġsustainable": 5408,
      "Ġpregnancy": 5409,
      "Ġstraight": 5410,
      "ĠHam": 5411,
      "OC": 5412,
      "ĠEvery": 5413,
      "Ġfrag": 5414,
      "war": 5415,
      "Ġspecifically": 5416,
      "anguage": 5417,
      "Ġhearing": 5418,
      "care": 5419,
      "Ġfloor": 5420,
      "Ġgirls": 5421,
      "Ġunless": 5422,
      "Ġincreasingly": 5423,
      "Ġhappened": 5424,
      "Ġvent": 5425,
      "itan": 5426,
      "Ġliver": 5427,
      "Ġrand": 5428,
      "stein": 5429,
      "onds": 5430,
      "Ġdepending": 5431,
      "Ġstock": 5432,
      "Ġlaboratory": 5433,
      "clusion": 5434,
      "iced": 5435,
      "Ġgoods": 5436,
      "Ġdim": 5437,
      "Ġindeed": 5438,
      "Ġmaximum": 5439,
      "Ġexperiments": 5440,
      "LE": 5441,
      "Se": 5442,
      "aria": 5443,
      "Ġroll": 5444,
      "During": 5445,
      "Ġlisted": 5446,
      "Ġnit": 5447,
      "Ġmedications": 5448,
      "ĠEngine": 5449,
      "Ġhyper": 5450,
      "ĠNatural": 5451,
      "ĠRussia": 5452,
      "inf": 5453,
      "Ġfit": 5454,
      "Ġseeds": 5455,
      "ĠCancer": 5456,
      "icon": 5457,
      "Ġcolleagues": 5458,
      "Ġcandid": 5459,
      "ĠRome": 5460,
      "Ġconsequences": 5461,
      "inction": 5462,
      "Im": 5463,
      "Ġthousand": 5464,
      "Ġextensive": 5465,
      "ĠPub": 5466,
      "Ġrandom": 5467,
      "Ġarms": 5468,
      "Ġadvice": 5469,
      "but": 5470,
      "ding": 5471,
      "Ġequival": 5472,
      "Ġsan": 5473,
      "Re": 5474,
      "Ġprotected": 5475,
      "rosc": 5476,
      "Ġdecline": 5477,
      "car": 5478,
      "ada": 5479,
      "Ġharvest": 5480,
      "ĠWell": 5481,
      "Ġproteins": 5482,
      "ĠPM": 5483,
      "Ġbow": 5484,
      "Ġentirely": 5485,
      "mic": 5486,
      "ĠCanadian": 5487,
      "Ġfailed": 5488,
      "Ġcharacters": 5489,
      "Ġagency": 5490,
      "Ġrecon": 5491,
      "rine": 5492,
      "Ġvegetables": 5493,
      "ki": 5494,
      "Pl": 5495,
      "Ġoption": 5496,
      "Ġdecade": 5497,
      "Ġhelping": 5498,
      "osc": 5499,
      "Ġadministration": 5500,
      "Ġcommit": 5501,
      "inn": 5502,
      "under": 5503,
      "Ġselection": 5504,
      "ĠRad": 5505,
      "ĠTherefore": 5506,
      "Ġpossess": 5507,
      "ĠFurther": 5508,
      "Ġprocedures": 5509,
      "Ġcircumst": 5510,
      "liament": 5511,
      "ĠStat": 5512,
      "Ġfocused": 5513,
      "reci": 5514,
      "Ġastronom": 5515,
      "Ġnewsp": 5516,
      "ĠNations": 5517,
      "Ġflat": 5518,
      "Ġinterf": 5519,
      "Ġprevention": 5520,
      "Ġeastern": 5521,
      "Ġsick": 5522,
      "Ġhit": 5523,
      "Ġleaving": 5524,
      "].": 5525,
      "Ġsector": 5526,
      "Ġcontribute": 5527,
      "ĠProfessor": 5528,
      "Ġshared": 5529,
      "ĠAnother": 5530,
      "inding": 5531,
      "cription": 5532,
      "Ġfigures": 5533,
      "Ġopened": 5534,
      "Ġwave": 5535,
      "Ġspiritual": 5536,
      "stream": 5537,
      "ĠPenn": 5538,
      "Ġfirm": 5539,
      "Ġnotice": 5540,
      "pass": 5541,
      "Ġgrown": 5542,
      "Ġdogs": 5543,
      "ĠOut": 5544,
      "such": 5545,
      "Ġaccurate": 5546,
      "Ġcounty": 5547,
      "Ġimpossible": 5548,
      "Ġmassive": 5549,
      "iated": 5550,
      "Ġrepresents": 5551,
      "abil": 5552,
      "Our": 5553,
      "Ġconstitution": 5554,
      "ini": 5555,
      "Ġagriculture": 5556,
      "Ġutil": 5557,
      "othe": 5558,
      "Ġreject": 5559,
      "Ġinfected": 5560,
      "down": 5561,
      "Ġpure": 5562,
      "Ġcritic": 5563,
      "'m": 5564,
      "ework": 5565,
      "Ġvalid": 5566,
      "ĠSaf": 5567,
      "ĠDel": 5568,
      "Ġsuc": 5569,
      "Ġpictures": 5570,
      "Ġfaster": 5571,
      "roid": 5572,
      "long": 5573,
      "ulin": 5574,
      "asks": 5575,
      "racy": 5576,
      "Here": 5577,
      "77": 5578,
      "tic": 5579,
      "ĠTimes": 5580,
      "Ġdepos": 5581,
      "Ġvehicle": 5582,
      "wo": 5583,
      "ĠBC": 5584,
      "Ġwalls": 5585,
      "Ġnormally": 5586,
      "dden": 5587,
      "Ġpossibly": 5588,
      "Ġdiscussed": 5589,
      "heast": 5590,
      "ĠAbout": 5591,
      "enses": 5592,
      "aturally": 5593,
      "zy": 5594,
      "cyclopedia": 5595,
      "no": 5596,
      "Ġcrisis": 5597,
      "Ġremaining": 5598,
      "ĠCy": 5599,
      "Ġdust": 5600,
      "Ġmix": 5601,
      "Ġfeeling": 5602,
      "Ġintellect": 5603,
      "Ġdescribes": 5604,
      "Ġ1994": 5605,
      "Ġassistance": 5606,
      "oned": 5607,
      "pet": 5608,
      "Ġcomputers": 5609,
      "Ġopinion": 5610,
      "uses": 5611,
      "Ġformal": 5612,
      "throp": 5613,
      "ĠChicago": 5614,
      "EP": 5615,
      "kins": 5616,
      "Ġimpacts": 5617,
      "Ġpig": 5618,
      "55": 5619,
      "Ġawareness": 5620,
      "ĠStreet": 5621,
      "Ġsubs": 5622,
      "Ġmarriage": 5623,
      "ĠDisc": 5624,
      "01": 5625,
      "Ġrefers": 5626,
      "Ġformat": 5627,
      "SS": 5628,
      "Ġderived": 5629,
      "ĠRichard": 5630,
      "?\"": 5631,
      "Ġadequ": 5632,
      "Ġsets": 5633,
      "hist": 5634,
      "Ġwildlife": 5635,
      "Ġdrop": 5636,
      "HO": 5637,
      "Ġdoubt": 5638,
      "Ġcert": 5639,
      "ait": 5640,
      "Ġhouses": 5641,
      "Ġpaint": 5642,
      "ĠHaw": 5643,
      "ĠTem": 5644,
      "luding": 5645,
      "ĠAcademy": 5646,
      "Ġkn": 5647,
      "icks": 5648,
      "imer": 5649,
      "Ġdepends": 5650,
      "Ġvulner": 5651,
      "last": 5652,
      "Ġorganized": 5653,
      "rovers": 5654,
      "Ġsolutions": 5655,
      "Ġtwenty": 5656,
      "ĠMichael": 5657,
      "Ġod": 5658,
      "isp": 5659,
      "Ġunknown": 5660,
      "Ġunlike": 5661,
      "Ġraise": 5662,
      "Ġabsolute": 5663,
      "Ġidentity": 5664,
      "EM": 5665,
      "Ġexcellent": 5666,
      "Ġprecise": 5667,
      "Ġideal": 5668,
      "Ġsequence": 5669,
      "Ġappearance": 5670,
      "anta": 5671,
      "Ġvoice": 5672,
      "eline": 5673,
      "Ġlesson": 5674,
      "Ġshell": 5675,
      "ĠManagement": 5676,
      "Ġpotentially": 5677,
      "aph": 5678,
      "Ġimmun": 5679,
      "Ġsudden": 5680,
      "Ġspend": 5681,
      "Ġcapable": 5682,
      "ureau": 5683,
      "elesc": 5684,
      "Ġfossil": 5685,
      "Ġlik": 5686,
      "uilding": 5687,
      "Ġphotograph": 5688,
      "ĠStudy": 5689,
      "uous": 5690,
      "ĠTor": 5691,
      "Ġmarked": 5692,
      "Ġauthorities": 5693,
      "bing": 5694,
      "opyright": 5695,
      "Ġclosed": 5696,
      "Ġflowers": 5697,
      "Ġinject": 5698,
      "Ġbeautiful": 5699,
      "zen": 5700,
      "ansion": 5701,
      "Ġscholars": 5702,
      "Ġrepeated": 5703,
      "ny": 5704,
      "Ġcomfort": 5705,
      "Ġunderstood": 5706,
      "Ġmur": 5707,
      "Ġpossibility": 5708,
      "esity": 5709,
      "Ġremark": 5710,
      "Ġlabel": 5711,
      "ĠLeg": 5712,
      "azine": 5713,
      "ĠTHE": 5714,
      "ĠOF": 5715,
      "Ġ1960": 5716,
      "Â·": 5717,
      "ogue": 5718,
      "ĠSciences": 5719,
      "Ġexpressed": 5720,
      "Ġdebate": 5721,
      "Ġrestrict": 5722,
      "Ġcomprehensive": 5723,
      "ĠProv": 5724,
      "Ġparties": 5725,
      "Ġsky": 5726,
      "sey": 5727,
      "Ġ300": 5728,
      "ĠColumbia": 5729,
      "Ġminimum": 5730,
      "Ġproducing": 5731,
      "Ġaqu": 5732,
      "Ġcareer": 5733,
      "05": 5734,
      "Ġflex": 5735,
      "ĠSupp": 5736,
      "Ġoccasion": 5737,
      "Ġgrav": 5738,
      "95": 5739,
      "Ġlose": 5740,
      "Ġvillage": 5741,
      "Ġfounded": 5742,
      "Ġextended": 5743,
      "Ġpoet": 5744,
      "Ġdestroyed": 5745,
      "ĠSpec": 5746,
      "ĠCamp": 5747,
      "aud": 5748,
      "Ġ500": 5749,
      "Ġrepresented": 5750,
      "Ġphilosophy": 5751,
      "isters": 5752,
      "Ġnine": 5753,
      "Ġwire": 5754,
      "Ġapproaches": 5755,
      "Ġble": 5756,
      "indu": 5757,
      "Ġestimates": 5758,
      "Ġcontained": 5759,
      "Dr": 5760,
      "fe": 5761,
      "comm": 5762,
      "Ġsimpl": 5763,
      "Ġsurvival": 5764,
      "Ġelectronic": 5765,
      "igenous": 5766,
      "Ġju": 5767,
      "Ġkeeping": 5768,
      "ĠGold": 5769,
      "Ġhorse": 5770,
      "ĠFort": 5771,
      "Ġmath": 5772,
      "ĠClin": 5773,
      "oln": 5774,
      "free": 5775,
      "Ġshel": 5776,
      "Ġsounds": 5777,
      "earchers": 5778,
      "Ġtun": 5779,
      "Ġapart": 5780,
      "Ġcomments": 5781,
      "Ġtiny": 5782,
      "rors": 5783,
      "ĠAustralian": 5784,
      "ĠDisease": 5785,
      "ĠOnly": 5786,
      "Ġprem": 5787,
      "ĠYet": 5788,
      "ĠGeorg": 5789,
      "ĠNorthern": 5790,
      "Ġdoctors": 5791,
      "ĠMad": 5792,
      "Ġinstitution": 5793,
      "Ġcorpor": 5794,
      "Ġdescription": 5795,
      "Ġagreement": 5796,
      "Ġmagnetic": 5797,
      "bur": 5798,
      "orter": 5799,
      "Ã¼": 5800,
      "Ġarrived": 5801,
      "ĠPan": 5802,
      "example": 5803,
      "ena": 5804,
      "Ġlaun": 5805,
      "Ġethnic": 5806,
      "ĠHall": 5807,
      "Ġabuse": 5808,
      "Ġmyth": 5809,
      "press": 5810,
      "Ġblog": 5811,
      "ato": 5812,
      "Ġfib": 5813,
      "Ġcrop": 5814,
      "Ġpu": 5815,
      "ĠIII": 5816,
      "Ġstret": 5817,
      "ĠGal": 5818,
      "Ġtrain": 5819,
      "Ġrecognize": 5820,
      "TS": 5821,
      "atal": 5822,
      "ĠMill": 5823,
      "Ġamb": 5824,
      "called": 5825,
      "Ġexchange": 5826,
      "ĠId": 5827,
      "stract": 5828,
      "Ġperspective": 5829,
      "ĠData": 5830,
      "Ġexpensive": 5831,
      "organ": 5832,
      "ogle": 5833,
      "Ġworldwide": 5834,
      "Ġimper": 5835,
      "Ġjustice": 5836,
      "ĠBoard": 5837,
      "athy": 5838,
      "Ġfly": 5839,
      "Ġaw": 5840,
      "Ġrecy": 5841,
      "Ġdiversity": 5842,
      "ĠAgricult": 5843,
      "Ġera": 5844,
      "ĠResources": 5845,
      "Ġtopics": 5846,
      "ifies": 5847,
      "hips": 5848,
      "pping": 5849,
      "ĠValley": 5850,
      "irty": 5851,
      "ĠUSA": 5852,
      "Ġunus": 5853,
      "ka": 5854,
      "ĠFe": 5855,
      "mary": 5856,
      "ĠPower": 5857,
      "Ġbudget": 5858,
      "79": 5859,
      "IL": 5860,
      "oster": 5861,
      "Ġrevealed": 5862,
      "ĠItaly": 5863,
      "Ġissued": 5864,
      "Ġinsp": 5865,
      "ĠEnd": 5866,
      "ĠKh": 5867,
      "cher": 5868,
      "ĠForest": 5869,
      "Ġmovements": 5870,
      "ĠLong": 5871,
      "Ġmuseum": 5872,
      "prise": 5873,
      "Ġgreatly": 5874,
      "ĠLike": 5875,
      "ansas": 5876,
      "Ġacts": 5877,
      "Ġwindow": 5878,
      "aine": 5879,
      "inity": 5880,
      "88": 5881,
      "cium": 5882,
      "umin": 5883,
      "teen": 5884,
      "Ġabund": 5885,
      "Ġobtain": 5886,
      "ĠIndians": 5887,
      "IA": 5888,
      "ĠExpl": 5889,
      "Ġdefic": 5890,
      "Ġintroduction": 5891,
      "Ġreform": 5892,
      "Ġsituations": 5893,
      "iate": 5894,
      "Ġobservations": 5895,
      "ĠSpain": 5896,
      "Ġvolunte": 5897,
      "orrow": 5898,
      "Ġconcentration": 5899,
      "Ġpump": 5900,
      "Ġvessels": 5901,
      "Ġmolecules": 5902,
      "ĠGlobal": 5903,
      "ĠBet": 5904,
      "lar": 5905,
      "Ġgalax": 5906,
      "ĠRevolution": 5907,
      "level": 5908,
      "âĢĿ,": 5909,
      "Ġpref": 5910,
      "Ġsubstance": 5911,
      "Ġsecondary": 5912,
      "Ġvaluable": 5913,
      "Cont": 5914,
      "Ġvote": 5915,
      "Ġtwice": 5916,
      "Ġopening": 5917,
      "Ġbear": 5918,
      "rem": 5919,
      "Ġwaves": 5920,
      "obe": 5921,
      "ĠLu": 5922,
      "apping": 5923,
      "My": 5924,
      "ario": 5925,
      "irds": 5926,
      "Ġerror": 5927,
      "gent": 5928,
      "heric": 5929,
      "Ġacceler": 5930,
      "ĠMag": 5931,
      "ĠColor": 5932,
      "Another": 5933,
      "66": 5934,
      "Ġplate": 5935,
      "iology": 5936,
      "imental": 5937,
      "incoln": 5938,
      "Ġphone": 5939,
      "icians": 5940,
      "ĠThose": 5941,
      "ĠBrown": 5942,
      "hma": 5943,
      "Ġlegisl": 5944,
      "ĠInstead": 5945,
      "42": 5946,
      "Ġmanage": 5947,
      "Ġtraffic": 5948,
      "Ġdecrease": 5949,
      "Ġaffects": 5950,
      "ĠCommon": 5951,
      "Ġadministr": 5952,
      "ta": 5953,
      "Ġcouple": 5954,
      "ĠUsing": 5955,
      "Ġran": 5956,
      "ĠAgency": 5957,
      "rastructure": 5958,
      "ua": 5959,
      "Ġguidelines": 5960,
      "avery": 5961,
      "ĠBr": 5962,
      "iac": 5963,
      "ih": 5964,
      "Why": 5965,
      "hemical": 5966,
      "Ġorganisms": 5967,
      "Ġlimits": 5968,
      "Ġantibiot": 5969,
      "Ġinflamm": 5970,
      "Ġbones": 5971,
      "aska": 5972,
      "idden": 5973,
      "olve": 5974,
      "Ġpermanent": 5975,
      "agers": 5976,
      "anda": 5977,
      "Ġplat": 5978,
      "ĠAtlantic": 5979,
      "Ġmaps": 5980,
      "Ġpropos": 5981,
      "Ġconventional": 5982,
      "Ġdioxide": 5983,
      "Ġinvestment": 5984,
      "Ġreplaced": 5985,
      "Ġdiscipl": 5986,
      "Ġwid": 5987,
      "Ġworse": 5988,
      "inations": 5989,
      "Ġmoist": 5990,
      "Ġjoined": 5991,
      "ĠParis": 5992,
      "Ġtow": 5993,
      "reland": 5994,
      "41": 5995,
      "ĠAny": 5996,
      "asp": 5997,
      "Ġparalle": 5998,
      "Ġdefe": 5999,
      "exp": 6000,
      "Ġsurvive": 6001,
      "Ġgender": 6002,
      "iform": 6003,
      "zil": 6004,
      "ctive": 6005,
      "Ġships": 6006,
      "Note": 6007,
      "Ġdaughter": 6008,
      "Ġlegislation": 6009,
      "Ġmarried": 6010,
      "Ġbrown": 6011,
      "Ġaer": 6012,
      "Ġphysics": 6013,
      "Ġbio": 6014,
      "Ġdin": 6015,
      "ĠGuide": 6016,
      "Ġfilled": 6017,
      "Ġshot": 6018,
      "ishop": 6019,
      "stone": 6020,
      "ĠSecret": 6021,
      "ĠVict": 6022,
      "Ġplaying": 6023,
      "ĠHoly": 6024,
      "Ġexists": 6025,
      "ĠEastern": 6026,
      "acts": 6027,
      "Ġentry": 6028,
      "Ġyield": 6029,
      "kes": 6030,
      "olester": 6031,
      "Ġgenerated": 6032,
      "struct": 6033,
      "Ġallerg": 6034,
      "Ġaren": 6035,
      "itudes": 6036,
      "Ġedge": 6037,
      "ester": 6038,
      "Ġtransmission": 6039,
      "Ġadding": 6040,
      "ocracy": 6041,
      "Ġterritory": 6042,
      "Ġequivalent": 6043,
      "Ġparam": 6044,
      "Ġimmediate": 6045,
      "mas": 6046,
      "igation": 6047,
      "Ġedition": 6048,
      "Ġdeliver": 6049,
      "Ġschem": 6050,
      "hand": 6051,
      "Ġtells": 6052,
      "ĠParty": 6053,
      "Ġshut": 6054,
      "ĠBank": 6055,
      "Ġemotional": 6056,
      "Ġnecessarily": 6057,
      "Ġmedium": 6058,
      "Ġachieved": 6059,
      "Last": 6060,
      "Ġgather": 6061,
      "Ġaf": 6062,
      "Ġearthqu": 6063,
      "Ġmotiv": 6064,
      "Ġbroken": 6065,
      "Ġcircumstances": 6066,
      "Ġstored": 6067,
      "Ġlaunch": 6068,
      "Ġdiscrim": 6069,
      "IG": 6070,
      "ĠHome": 6071,
      "gu": 6072,
      "Ġfruits": 6073,
      "Ġhem": 6074,
      "spec": 6075,
      "elled": 6076,
      "ola": 6077,
      ":||": 6078,
      "Us": 6079,
      "Ġproduces": 6080,
      "Ġrub": 6081,
      "Ġsupplies": 6082,
      "43": 6083,
      "Ġsell": 6084,
      "ye": 6085,
      "Ġindicates": 6086,
      "Ġleadership": 6087,
      "Ġ1992": 6088,
      "Ġpush": 6089,
      "Ġ1993": 6090,
      "Ġfewer": 6091,
      "ĠWik": 6092,
      "Ġdepartment": 6093,
      "ĠWood": 6094,
      "onia": 6095,
      "Ġroots": 6096,
      "Ġopposite": 6097,
      "Ġrein": 6098,
      "Ġphr": 6099,
      "Ġcoastal": 6100,
      "Ġforth": 6101,
      "Ġax": 6102,
      "Ġcontrovers": 6103,
      "omic": 6104,
      "Ġsensitive": 6105,
      "Ġepid": 6106,
      "Ġimplementation": 6107,
      "Ġgrew": 6108,
      "lets": 6109,
      "ĠEmpire": 6110,
      "Ġpretty": 6111,
      "tra": 6112,
      "umes": 6113,
      "Ġelection": 6114,
      "Ġtoler": 6115,
      "Ġpromin": 6116,
      "Ġconscious": 6117,
      "Ġlandscape": 6118,
      "Ġneither": 6119,
      "Ġslowly": 6120,
      "ulty": 6121,
      "ibilities": 6122,
      "Ġelectron": 6123,
      "rd": 6124,
      "Ġremote": 6125,
      "Ġtail": 6126,
      "Ġnaturally": 6127,
      "Ġpowers": 6128,
      "Ġextract": 6129,
      "Ġpublication": 6130,
      "eenth": 6131,
      "Ġgone": 6132,
      "olesterol": 6133,
      "Ġdomin": 6134,
      "Ġsupplement": 6135,
      "ĠAdministration": 6136,
      "ita": 6137,
      "Ġsignals": 6138,
      "ĠBre": 6139,
      "uels": 6140,
      "Ġlocations": 6141,
      "ediatric": 6142,
      "Ġwel": 6143,
      "ĠLab": 6144,
      "ĠIreland": 6145,
      "ĠGood": 6146,
      "ifications": 6147,
      "ĠOhio": 6148,
      "Ġborder": 6149,
      "comes": 6150,
      "usal": 6151,
      "ĠFree": 6152,
      "Ġappreci": 6153,
      "Ġ36": 6154,
      "CT": 6155,
      "Ġtal": 6156,
      "Ġcontamin": 6157,
      "ĠServices": 6158,
      "Ġcurriculum": 6159,
      "Ġrecovery": 6160,
      "Ġgreenhouse": 6161,
      "aser": 6162,
      "Ġchart": 6163,
      "Ġclust": 6164,
      "ctor": 6165,
      "Ġwitness": 6166,
      "ceived": 6167,
      "Ġmetab": 6168,
      "Ġresolution": 6169,
      "tenance": 6170,
      "Ġtalking": 6171,
      "fish": 6172,
      "Ġsight": 6173,
      "Ġchildhood": 6174,
      "Ġmechanism": 6175,
      "Ġvehicles": 6176,
      "Ġuniversity": 6177,
      "Ġlov": 6178,
      "ĠRoyal": 6179,
      "Ġinstruments": 6180,
      "Ġagreed": 6181,
      "Ġaccounts": 6182,
      "Ġregist": 6183,
      "Ġreaders": 6184,
      "igned": 6185,
      "Ġattached": 6186,
      "Ġgenerate": 6187,
      "ancing": 6188,
      "Ġsatellite": 6189,
      "Ġmuscles": 6190,
      "omach": 6191,
      "icide": 6192,
      "Ġpra": 6193,
      "ĠKnow": 6194,
      "Ġvital": 6195,
      "Ġuns": 6196,
      "Ġenhance": 6197,
      "OU": 6198,
      "Ġcatch": 6199,
      "Ġcos": 6200,
      "Ġoral": 6201,
      "ĠVis": 6202,
      "oston": 6203,
      "Ġnone": 6204,
      "Since": 6205,
      "AA": 6206,
      "ĠIN": 6207,
      "Ġhoriz": 6208,
      "Ã³": 6209,
      "everal": 6210,
      "Ġdensity": 6211,
      "Ġconstit": 6212,
      "ĠâĨ": 6213,
      "html": 6214,
      "xiety": 6215,
      "Ġhus": 6216,
      "Ġchrom": 6217,
      "Ġsomewhat": 6218,
      "Ġfalse": 6219,
      "Ġprohib": 6220,
      "look": 6221,
      "Ġsurf": 6222,
      "inder": 6223,
      "Ġtrials": 6224,
      "CS": 6225,
      "osion": 6226,
      "igan": 6227,
      "Ġdepart": 6228,
      "Ġresulted": 6229,
      "flow": 6230,
      "ĠLib": 6231,
      "utch": 6232,
      "Ġdifficulty": 6233,
      "ints": 6234,
      "Ġentered": 6235,
      "ymph": 6236,
      "Ġneu": 6237,
      "Ġing": 6238,
      "Ġdoor": 6239,
      "Ġstages": 6240,
      "Ġfever": 6241,
      "Ġhelpful": 6242,
      "ĠDu": 6243,
      "hop": 6244,
      "pread": 6245,
      "Ġfill": 6246,
      "Ġconsistent": 6247,
      "ĠRob": 6248,
      "ĠJeff": 6249,
      "ĠMartin": 6250,
      "Ġspok": 6251,
      "Ġmanaged": 6252,
      "Ġstring": 6253,
      "Ġcars": 6254,
      "En": 6255,
      "Ġthy": 6256,
      "ĠStep": 6257,
      "Do": 6258,
      "Ġenemy": 6259,
      "iah": 6260,
      "Ġannounced": 6261,
      "Ġyounger": 6262,
      "iana": 6263,
      "Ġunable": 6264,
      "een": 6265,
      "ĠExt": 6266,
      "85": 6267,
      "Ġcognitive": 6268,
      "Ġvolcan": 6269,
      "ione": 6270,
      "ĠDivision": 6271,
      ".'": 6272,
      "ascular": 6273,
      "Ġsuffering": 6274,
      "Ġsupposed": 6275,
      "bran": 6276,
      "Ġtransportation": 6277,
      "idespread": 6278,
      "Ġhistoric": 6279,
      "Ġfixed": 6280,
      "ĠCult": 6281,
      "ĠCare": 6282,
      "osph": 6283,
      "ercury": 6284,
      "ĠÎ": 6285,
      "ĠPC": 6286,
      "rating": 6287,
      "Ġzone": 6288,
      "ĠGree": 6289,
      "top": 6290,
      "BS": 6291,
      "ĠLincoln": 6292,
      "Ġscan": 6293,
      "Ġcamera": 6294,
      "Ġsuccessfully": 6295,
      "Ġprincipal": 6296,
      "ĠMicro": 6297,
      "Ġdeclared": 6298,
      "alysis": 6299,
      "hered": 6300,
      "Ġattend": 6301,
      "Ġ75": 6302,
      "Ġcolors": 6303,
      "Ġregulations": 6304,
      "ĠNative": 6305,
      "Ġcart": 6306,
      "Ġelected": 6307,
      "ective": 6308,
      "Ġfacilit": 6309,
      "Ġrivers": 6310,
      "Ġcloud": 6311,
      "Ġapproved": 6312,
      "Ġemployed": 6313,
      "Ġdriving": 6314,
      "Ġru": 6315,
      "Ġwish": 6316,
      "ĠLearning": 6317,
      "Ġcultiv": 6318,
      "Ġcrim": 6319,
      "ĠScott": 6320,
      "ĠMa": 6321,
      "Ġcomposition": 6322,
      "ĠMer": 6323,
      "char": 6324,
      "Ã¶": 6325,
      "ĠSol": 6326,
      "Ġfighting": 6327,
      "Ġdiverse": 6328,
      "',": 6329,
      "Ġcarefully": 6330,
      "ĠDirector": 6331,
      "Ġ32": 6332,
      "Ġcourses": 6333,
      "zed": 6334,
      "Ġflag": 6335,
      "ĠAtt": 6336,
      "Ġnearby": 6337,
      "ceeded": 6338,
      "Ġsecure": 6339,
      "Ġdivision": 6340,
      "produ": 6341,
      "ora": 6342,
      "isted": 6343,
      "Ġfertil": 6344,
      "Ġspeaking": 6345,
      "Ġrising": 6346,
      "ĠScot": 6347,
      "Ġdream": 6348,
      "ĠRock": 6349,
      "ployment": 6350,
      "Ġsuffer": 6351,
      "Ġdrawn": 6352,
      "Stud": 6353,
      "ĠAccess": 6354,
      "71": 6355,
      "Ġ1991": 6356,
      "Ġsurve": 6357,
      "Ġstudying": 6358,
      "ella": 6359,
      "Ġseeing": 6360,
      "Ġaband": 6361,
      "cling": 6362,
      "ĠPop": 6363,
      "Ġtransition": 6364,
      "ooth": 6365,
      "73": 6366,
      "Ġlies": 6367,
      "Ġacknow": 6368,
      "Ġsmoke": 6369,
      "ĠItalian": 6370,
      "ĠTop": 6371,
      "Ġaward": 6372,
      "Ġchosen": 6373,
      "ĠLaboratory": 6374,
      "then": 6375,
      "Ġvariable": 6376,
      "ĠRom": 6377,
      "Ġseemed": 6378,
      "Ġdelay": 6379,
      "gans": 6380,
      "igrants": 6381,
      "asive": 6382,
      "orous": 6383,
      "Ġestimate": 6384,
      "Ġ150": 6385,
      "Ġmedic": 6386,
      "Ġanswers": 6387,
      "ĠCap": 6388,
      "Ġhop": 6389,
      "Ġrow": 6390,
      "Ġinfrastructure": 6391,
      "Ġmixed": 6392,
      "ailed": 6393,
      "ĠHeb": 6394,
      "Ġmerely": 6395,
      "ificial": 6396,
      "bour": 6397,
      "Ġinvent": 6398,
      "plant": 6399,
      "agon": 6400,
      "Ġends": 6401,
      "Ġrid": 6402,
      "phone": 6403,
      "'d": 6404,
      "RA": 6405,
      "Ġemployment": 6406,
      "rary": 6407,
      "IP": 6408,
      "Ġrelation": 6409,
      "Ġprepare": 6410,
      "Ġthor": 6411,
      "ocation": 6412,
      "Ġdestruction": 6413,
      "vironments": 6414,
      "Ġprove": 6415,
      "Ġmedication": 6416,
      "Ġexplanation": 6417,
      "Ġmild": 6418,
      "Ġserver": 6419,
      "Ġaccum": 6420,
      "abled": 6421,
      "Ġnegot": 6422,
      "uh": 6423,
      "Ġinsects": 6424,
      "Ġfunds": 6425,
      "Ġexpansion": 6426,
      "Ġevaluation": 6427,
      "ested": 6428,
      "Ġlect": 6429,
      "ĠGard": 6430,
      "while": 6431,
      "ĠEncyclopedia": 6432,
      "ĠExper": 6433,
      "Ġwhatever": 6434,
      "lvan": 6435,
      "otion": 6436,
      "ĠViet": 6437,
      "dis": 6438,
      "74": 6439,
      "Ġdesire": 6440,
      "ults": 6441,
      "Ġswitch": 6442,
      "erent": 6443,
      "Ġleaf": 6444,
      "Ġknows": 6445,
      "Ġsharing": 6446,
      "08": 6447,
      "Ġmeth": 6448,
      "ĠFamily": 6449,
      "Ġveter": 6450,
      "Ġlaunched": 6451,
      "Ġroutine": 6452,
      "May": 6453,
      "Ġnutrients": 6454,
      "Ġtouch": 6455,
      "struction": 6456,
      "Ġultimately": 6457,
      "Ġbiology": 6458,
      "ĠCoast": 6459,
      "iral": 6460,
      "arant": 6461,
      "Ġnurs": 6462,
      "Ġcomparison": 6463,
      "cons": 6464,
      "Ġpercentage": 6465,
      "Ġpull": 6466,
      "urb": 6467,
      "Ġfoundation": 6468,
      "adel": 6469,
      "Ġstruggle": 6470,
      "Ġstanding": 6471,
      "Ġtons": 6472,
      "xts": 6473,
      "vard": 6474,
      "Ġalle": 6475,
      "Ġstroke": 6476,
      "Ġcrow": 6477,
      "angered": 6478,
      "asters": 6479,
      "ĠSpecial": 6480,
      "ĠKingdom": 6481,
      "Ġlin": 6482,
      "Ġdownload": 6483,
      "ĠDet": 6484,
      "Ġarter": 6485,
      "Ġstick": 6486,
      "Ġnetworks": 6487,
      "acing": 6488,
      "Ġarrange": 6489,
      "urrent": 6490,
      "Ġeld": 6491,
      "Ġpassage": 6492,
      "Ġcommission": 6493,
      "Ġminim": 6494,
      "Ġweapons": 6495,
      "Ġblow": 6496,
      "Ġdollars": 6497,
      "ĠOxford": 6498,
      "ĠNaz": 6499,
      "Ġtasks": 6500,
      "oven": 6501,
      "Ġtube": 6502,
      "Ġofficers": 6503,
      "ĠSurvey": 6504,
      "Ġundert": 6505,
      "Ġstands": 6506,
      "Ġwidespread": 6507,
      "Ġhypothes": 6508,
      "Ġscript": 6509,
      "antly": 6510,
      "ugh": 6511,
      "isco": 6512,
      "Ġpolitics": 6513,
      "ĠFour": 6514,
      "Ġconsumers": 6515,
      "ĠIrish": 6516,
      "ditional": 6517,
      "inking": 6518,
      "Bl": 6519,
      "Pe": 6520,
      "esis": 6521,
      "ĠThrough": 6522,
      "ashion": 6523,
      "CD": 6524,
      "cal": 6525,
      "Ġratio": 6526,
      "Ġdedicated": 6527,
      "sylvan": 6528,
      "Ġmand": 6529,
      "Ġsod": 6530,
      "ĠEth": 6531,
      "Ġintellectual": 6532,
      "Ġcloser": 6533,
      "Ġindependence": 6534,
      "Ġregularly": 6535,
      "Ġrocks": 6536,
      "Ġsole": 6537,
      "Ġpoison": 6538,
      "Ġhydrogen": 6539,
      "72": 6540,
      "ĠBrazil": 6541,
      "Ġintelligence": 6542,
      "Ġpositions": 6543,
      "Ġsections": 6544,
      "Ġplatform": 6545,
      "ĠWall": 6546,
      "Ġpounds": 6547,
      "Ġmobile": 6548,
      "Ġdebt": 6549,
      "lines": 6550,
      "Ġrank": 6551,
      "Ġafford": 6552,
      "ĠDistrict": 6553,
      "Ġcolumn": 6554,
      "aked": 6555,
      "Ġinvolving": 6556,
      "Can": 6557,
      "operation": 6558,
      "Ġstomach": 6559,
      "itative": 6560,
      "weight": 6561,
      "Ġrefuge": 6562,
      "scale": 6563,
      "Ġlessons": 6564,
      "Ġeditor": 6565,
      "Ġjoin": 6566,
      "uing": 6567,
      "Ġislands": 6568,
      "Ġfourth": 6569,
      "ĠForce": 6570,
      "ĠEarly": 6571,
      ")|": 6572,
      "Ġexamine": 6573,
      "ĠIP": 6574,
      "ĠSup": 6575,
      "Ġinner": 6576,
      "peror": 6577,
      "ĠBab": 6578,
      "Ġdemonstrated": 6579,
      "Ġhousing": 6580,
      "Ġfeeding": 6581,
      "Ġparticipation": 6582,
      "Ġcenters": 6583,
      "Ġsigned": 6584,
      "06": 6585,
      "Ġmales": 6586,
      "ivery": 6587,
      "Ġcrew": 6588,
      "Ġcomposed": 6589,
      "Ġchain": 6590,
      "Ġparticipate": 6591,
      "Ġsmoking": 6592,
      "Int": 6593,
      "Ġ(\"": 6594,
      "Ġconsiderable": 6595,
      "wing": 6596,
      "Ġboys": 6597,
      "Ġdiagnosed": 6598,
      "orses": 6599,
      "Ġoblig": 6600,
      "Ġdecide": 6601,
      "Ġbread": 6602,
      "Ġindicated": 6603,
      "ĠHill": 6604,
      "Ġ65": 6605,
      "ĠList": 6606,
      "Ġfacility": 6607,
      "Ġended": 6608,
      "rison": 6609,
      "ĠTime": 6610,
      "word": 6611,
      "ĠBoston": 6612,
      "ĠConservation": 6613,
      "Ġorbit": 6614,
      "ĠClimate": 6615,
      "Figure": 6616,
      "Te": 6617,
      "Ġabnormal": 6618,
      "Ġwants": 6619,
      "Ġchoices": 6620,
      "CL": 6621,
      "Ġwriter": 6622,
      "power": 6623,
      "Ġmice": 6624,
      "Ġcong": 6625,
      "Ġinjuries": 6626,
      "erals": 6627,
      "Ġhero": 6628,
      "ounded": 6629,
      "Ġinfant": 6630,
      "Ġpair": 6631,
      "Of": 6632,
      "Ġhonor": 6633,
      "Ġobesity": 6634,
      "Ġcholesterol": 6635,
      "Ġmode": 6636,
      "Ġarchitecture": 6637,
      "Ġsports": 6638,
      "Ġintake": 6639,
      "Ġflo": 6640,
      "ca": 6641,
      "Ġturns": 6642,
      "Ġassociation": 6643,
      "Ġgenerations": 6644,
      "Ġ1950": 6645,
      "cribed": 6646,
      "Ġopposed": 6647,
      "Ġroute": 6648,
      "lishing": 6649,
      "Ġtips": 6650,
      "Ġreserved": 6651,
      "ĠGeorgia": 6652,
      "oples": 6653,
      "Ġtruly": 6654,
      "Ġcalcium": 6655,
      "ĠConn": 6656,
      "ĠGrand": 6657,
      "Ġbomb": 6658,
      "cul": 6659,
      "Ġaccident": 6660,
      "09": 6661,
      "Ġsought": 6662,
      "Ġregul": 6663,
      "Ġarrest": 6664,
      "Ġsupports": 6665,
      "Ġelectro": 6666,
      "Ġimproving": 6667,
      "Ġproportion": 6668,
      "sylvania": 6669,
      "Ġmaintained": 6670,
      "Ġcompetition": 6671,
      "ĠJohnson": 6672,
      "Ġacres": 6673,
      "OL": 6674,
      "Ġruns": 6675,
      "68": 6676,
      "Ġspending": 6677,
      "Ġtelevision": 6678,
      "ishment": 6679,
      "ĠAS": 6680,
      "Ġconference": 6681,
      "pes": 6682,
      "Ġmatters": 6683,
      "Ġcryst": 6684,
      "Ġske": 6685,
      "Ġstrongly": 6686,
      "ĠEPA": 6687,
      "Ġenable": 6688,
      "Ġmeasurements": 6689,
      "Ġcommittee": 6690,
      "Ġclaimed": 6691,
      "rey": 6692,
      "Ġmit": 6693,
      "oir": 6694,
      "Ġmodified": 6695,
      "Ġtall": 6696,
      "Ġmaintenance": 6697,
      "Ġfishing": 6698,
      "ĠBill": 6699,
      "Ġconstructed": 6700,
      "eor": 6701,
      "ĠPolic": 6702,
      "Ġhole": 6703,
      "Ġwilling": 6704,
      "ĠÂ©": 6705,
      "inson": 6706,
      "IM": 6707,
      "Ġpapers": 6708,
      "Ġexplo": 6709,
      "Ġmathematics": 6710,
      "Ġshift": 6711,
      "Ġtheore": 6712,
      "Ġille": 6713,
      "how": 6714,
      "ĠSat": 6715,
      "Ġperm": 6716,
      "Ġsacr": 6717,
      "ĠAngel": 6718,
      "Ġmeters": 6719,
      "Ġproved": 6720,
      "Ġcopyright": 6721,
      "ĠGulf": 6722,
      "ricts": 6723,
      "Ġframework": 6724,
      "Ġcaptured": 6725,
      "arn": 6726,
      "Ġbabies": 6727,
      "Ġarchae": 6728,
      "Ġcultures": 6729,
      "Ġhydro": 6730,
      "ĠDou": 6731,
      "Ġenvironments": 6732,
      "http": 6733,
      "irt": 6734,
      "etics": 6735,
      "spe": 6736,
      "\")": 6737,
      "ĠAmong": 6738,
      "Ġintervention": 6739,
      "ipedia": 6740,
      "Ġinhib": 6741,
      "Ġparallel": 6742,
      "Ġrecognition": 6743,
      "la": 6744,
      "erted": 6745,
      "Ġsuitable": 6746,
      "Ġcapture": 6747,
      "03": 6748,
      "Ġmechanisms": 6749,
      "Ġappointed": 6750,
      "Ġinher": 6751,
      "ighter": 6752,
      "Ġfract": 6753,
      "02": 6754,
      "Ġholds": 6755,
      "Ġneck": 6756,
      "Ġingred": 6757,
      "Ġpron": 6758,
      "earing": 6759,
      "ĠPalest": 6760,
      "ether": 6761,
      "Ġtumor": 6762,
      "prof": 6763,
      "Ġsweet": 6764,
      "Ġplus": 6765,
      "eper": 6766,
      "Ġreceiving": 6767,
      "Ġstre": 6768,
      "ĠSecurity": 6769,
      "osh": 6770,
      "Ġcontrols": 6771,
      "ĠLin": 6772,
      "Ġcircuit": 6773,
      "Ġoutbre": 6774,
      "Qu": 6775,
      "Ġboy": 6776,
      "fortunately": 6777,
      "Ġpregnant": 6778,
      "Ġprev": 6779,
      "Ġzero": 6780,
      "Ġscientist": 6781,
      "including": 6782,
      "li": 6783,
      "Ġcreates": 6784,
      "ĠIran": 6785,
      "riers": 6786,
      "uset": 6787,
      "Ġcommitted": 6788,
      "Ġphysician": 6789,
      "alls": 6790,
      "Rec": 6791,
      "eless": 6792,
      "abric": 6793,
      "Ġrig": 6794,
      "Ġimprovement": 6795,
      "04": 6796,
      "Ġcrime": 6797,
      "aded": 6798,
      "quar": 6799,
      "Ġtexts": 6800,
      "Ġstreet": 6801,
      "ĠProp": 6802,
      "Ġincl": 6803,
      "Ġagents": 6804,
      "gs": 6805,
      "ĠGoogle": 6806,
      "Ġroof": 6807,
      "Ġfemales": 6808,
      "Ġadm": 6809,
      "UN": 6810,
      "Ġbiod": 6811,
      "Ġfrequent": 6812,
      "Ġlegs": 6813,
      "Ġordered": 6814,
      "Ġpreval": 6815,
      "Ġevil": 6816,
      "Ġrecommendations": 6817,
      "ĠCambridge": 6818,
      "ĠConfed": 6819,
      "Ġvictims": 6820,
      "ĠJac": 6821,
      "urches": 6822,
      "sen": 6823,
      "Ġmanufacturing": 6824,
      "ĠPlease": 6825,
      "ano": 6826,
      "urt": 6827,
      "Ġadoles": 6828,
      "Ġfeelings": 6829,
      "DP": 6830,
      "Ġreader": 6831,
      "ĠEff": 6832,
      "Ġdefine": 6833,
      "IR": 6834,
      "Ġanxiety": 6835,
      "erior": 6836,
      "bar": 6837,
      "ums": 6838,
      "Ġlie": 6839,
      "Ġstrict": 6840,
      "Ġmarkets": 6841,
      "Ġnoise": 6842,
      "Ġsupporting": 6843,
      "ading": 6844,
      "Ġkilomet": 6845,
      "mail": 6846,
      "ĠVictor": 6847,
      "Ġstarts": 6848,
      "Read": 6849,
      "Ġdanger": 6850,
      "ĠTV": 6851,
      "ĠNov": 6852,
      "Ġhun": 6853,
      "ima": 6854,
      "Ġoperate": 6855,
      "Ġemployees": 6856,
      "ĠWhere": 6857,
      "Ġrarely": 6858,
      "Ġresponses": 6859,
      "Ġdisaster": 6860,
      "Ġalter": 6861,
      "Ġcited": 6862,
      "Ġnewly": 6863,
      "ipping": 6864,
      "ivered": 6865,
      "Ġinstructions": 6866,
      "anes": 6867,
      "Ġdose": 6868,
      "89": 6869,
      "Ġpurchase": 6870,
      "venue": 6871,
      "emia": 6872,
      "Ġadequate": 6873,
      "herent": 6874,
      "Ġsteel": 6875,
      "ĠDesign": 6876,
      "ĠMS": 6877,
      "usetts": 6878,
      "Ġahead": 6879,
      "abits": 6880,
      "Ġthoughts": 6881,
      "ĠAge": 6882,
      "orph": 6883,
      "achusetts": 6884,
      "ushed": 6885,
      "Ġwithd": 6886,
      "Ġcompounds": 6887,
      "Ġmanif": 6888,
      "ĠWindows": 6889,
      "Ġorgans": 6890,
      "Ġprompt": 6891,
      "Ġlists": 6892,
      "Ġteen": 6893,
      "ĠPennsylvania": 6894,
      "ĠYoung": 6895,
      "Am": 6896,
      "ĠNetwork": 6897,
      "Ġnest": 6898,
      "Ġdefense": 6899,
      "Ġtrouble": 6900,
      "Ġplays": 6901,
      "apse": 6902,
      "Ġstable": 6903,
      "Ġcm": 6904,
      "Ġpool": 6905,
      "uts": 6906,
      "ĠWildlife": 6907,
      "ĠAsian": 6908,
      "ĠPet": 6909,
      "Ġsubsequent": 6910,
      "Ġreactions": 6911,
      "Ġnerve": 6912,
      "Ġdrawing": 6913,
      "reated": 6914,
      "Ġlayers": 6915,
      "Ġsoul": 6916,
      "Ġblind": 6917,
      "Ġattempts": 6918,
      "Ġcriteria": 6919,
      "Ġslaves": 6920,
      "Ġinteraction": 6921,
      "Ġkidney": 6922,
      "istent": 6923,
      "Ġexception": 6924,
      "ocy": 6925,
      "Ġunderlying": 6926,
      "Not": 6927,
      "Ġlots": 6928,
      "Ġtropical": 6929,
      "ĠMake": 6930,
      "Ġtrip": 6931,
      "acco": 6932,
      "Ġmachines": 6933,
      "Ġcategories": 6934,
      "Ġburning": 6935,
      "Ġtheories": 6936,
      "Ġorient": 6937,
      "medi": 6938,
      "ĠWhe": 6939,
      "itter": 6940,
      "Ġunusual": 6941,
      "ĠLanguage": 6942,
      "07": 6943,
      "acher": 6944,
      "ĠPage": 6945,
      "Ġmolecular": 6946,
      "ĠFund": 6947,
      "Ġrecept": 6948,
      "inally": 6949,
      "ĠMel": 6950,
      "ĠDen": 6951,
      "ĠCommunity": 6952,
      "orith": 6953,
      "uracy": 6954,
      "ĠâĢ¦": 6955,
      "Ġdemonstrate": 6956,
      "class": 6957,
      "Ġwalking": 6958,
      "Ġsilver": 6959,
      "ĠHospital": 6960,
      "ĠSil": 6961,
      "Ġconcerning": 6962,
      "rat": 6963,
      "Ġvolt": 6964,
      "Ġsolve": 6965,
      "Ġinstalled": 6966,
      "Ġfisher": 6967,
      "ĠHebrew": 6968,
      "raq": 6969,
      "Ġfairly": 6970,
      "onomy": 6971,
      "Because": 6972,
      "Ġscene": 6973,
      "ĠMen": 6974,
      "Ġsubstantial": 6975,
      "Ġholding": 6976,
      "using": 6977,
      "Ġraw": 6978,
      "Ġroughly": 6979,
      "Ġring": 6980,
      "ĠArctic": 6981,
      "Ġintegrated": 6982,
      "Med": 6983,
      "Des": 6984,
      "ĠSupreme": 6985,
      "net": 6986,
      "Ġproof": 6987,
      "ady": 6988,
      "ĠEp": 6989,
      "heimer": 6990,
      "Ġlaid": 6991,
      "Ġguarant": 6992,
      "'.": 6993,
      "Ġdigest": 6994,
      "Ġconqu": 6995,
      "ucky": 6996,
      "elescope": 6997,
      "Ġinsurance": 6998,
      "Ġinterpre": 6999,
      "arsh": 7000,
      "izer": 7001,
      "Ġcrucial": 7002,
      "Ġearliest": 7003,
      "Ġescape": 7004,
      "Ġcovers": 7005,
      "Ġstations": 7006,
      "ĠChange": 7007,
      "Ġbridge": 7008,
      "erman": 7009,
      "Ġplanned": 7010,
      "Ġtrained": 7011,
      "Ġinterpretation": 7012,
      "she": 7013,
      "Ġexclus": 7014,
      "Ġbusinesses": 7015,
      "ĠBig": 7016,
      "Ġpresentation": 7017,
      "Ġtransf": 7018,
      "roat": 7019,
      "Ġsubstances": 7020,
      "Ġconclusion": 7021,
      "ĠVen": 7022,
      "Ġterror": 7023,
      "Ġscreening": 7024,
      "64": 7025,
      "Ġlifest": 7026,
      "Ġid": 7027,
      "Ġcontemporary": 7028,
      "Ġpeak": 7029,
      "Ġdirected": 7030,
      "Ġviruses": 7031,
      "adelph": 7032,
      "Ġbanks": 7033,
      "Ġmortality": 7034,
      "mes": 7035,
      "Ġunion": 7036,
      "Ġturb": 7037,
      "usalem": 7038,
      "Ġuncertain": 7039,
      "ograp": 7040,
      "ĠChristians": 7041,
      "Ġcutting": 7042,
      "ĠMichigan": 7043,
      "Ġarts": 7044,
      "Ġhandle": 7045,
      "ĠAND": 7046,
      "ourage": 7047,
      "Ġjourney": 7048,
      "Ġprofessionals": 7049,
      "Ed": 7050,
      "----": 7051,
      "Ġbreeding": 7052,
      "Ġbiggest": 7053,
      "69": 7054,
      "Ġcattle": 7055,
      "Ġsentence": 7056,
      "Ġath": 7057,
      "Ġconsumer": 7058,
      "Ġmac": 7059,
      "Ġwhereas": 7060,
      "Ġvac": 7061,
      "roduction": 7062,
      "Ġexamination": 7063,
      "Ġov": 7064,
      "Ġframe": 7065,
      "ounce": 7066,
      "Ġhusband": 7067,
      "alm": 7068,
      "Ġmatch": 7069,
      "Ġfurn": 7070,
      "Ġdistributed": 7071,
      "ĠComput": 7072,
      "Ġuniversal": 7073,
      "eren": 7074,
      "ĠMassachusetts": 7075,
      "________": 7076,
      "hav": 7077,
      "ĠColorado": 7078,
      "Ġpainting": 7079,
      "Ġoutcomes": 7080,
      "ĠPrevention": 7081,
      "Ġpreced": 7082,
      "Ġprotocol": 7083,
      "abul": 7084,
      "Ġ400": 7085,
      "Ġobjective": 7086,
      "illa": 7087,
      "Ġpharm": 7088,
      "Ġbeliefs": 7089,
      "Ġfold": 7090,
      "Ġcoff": 7091,
      "Ġplane": 7092,
      "Ġengage": 7093,
      "itals": 7094,
      "Ġsuffered": 7095,
      "ette": 7096,
      "Le": 7097,
      "isk": 7098,
      "Ġ1989": 7099,
      "Ġswim": 7100,
      "bles": 7101,
      "ĠPrince": 7102,
      "Ġdelivered": 7103,
      "ĠSuper": 7104,
      "Ġfasc": 7105,
      "Your": 7106,
      "ĠSwed": 7107,
      "ĠSk": 7108,
      "Ġnarr": 7109,
      "Ġgluc": 7110,
      "sts": 7111,
      "rous": 7112,
      "Ġpermission": 7113,
      "Ġpestic": 7114,
      "Ġenforce": 7115,
      "yal": 7116,
      "Ġconven": 7117,
      "Ġphoto": 7118,
      "ĠAri": 7119,
      "ĠAdv": 7120,
      "ĠTim": 7121,
      "Ġplanets": 7122,
      "Ġassigned": 7123,
      "theless": 7124,
      "adelphia": 7125,
      "Ġbranch": 7126,
      "etime": 7127,
      "Ġlake": 7128,
      "Ġdelivery": 7129,
      "inois": 7130,
      "Ġgranted": 7131,
      "Ġcentre": 7132,
      "Ġasthma": 7133,
      "ĠMoon": 7134,
      "hesis": 7135,
      "ĠSund": 7136,
      "asty": 7137,
      "umps": 7138,
      "Ġexamined": 7139,
      "Ġcarrying": 7140,
      "unicip": 7141,
      "orted": 7142,
      "cel": 7143,
      "Ġconfirmed": 7144,
      "CE": 7145,
      "?âĢĿ": 7146,
      "def": 7147,
      "Ġvulnerable": 7148,
      "CH": 7149,
      "Ġmos": 7150,
      "rin": 7151,
      "ĠFather": 7152,
      "Ġtract": 7153,
      "%)": 7154,
      "Ġcompris": 7155,
      "Ġmembran": 7156,
      "ĠObama": 7157,
      "ĠTre": 7158,
      "Ġrespir": 7159,
      "ĠâĨĳ": 7160,
      "Ġintense": 7161,
      "Ġopposition": 7162,
      "istical": 7163,
      "Ġhappy": 7164,
      "Ġconcluded": 7165,
      "Ġslavery": 7166,
      "erty": 7167,
      "Ġessentially": 7168,
      "Ġshif": 7169,
      "Ġneur": 7170,
      "Ġresident": 7171,
      "ĠAM": 7172,
      "ĠMinister": 7173,
      "Ġartists": 7174,
      "outs": 7175,
      "Ġwasn": 7176,
      "utrition": 7177,
      "amil": 7178,
      "First": 7179,
      "uality": 7180,
      "Ġsignificance": 7181,
      "ĠVer": 7182,
      "Ġspacecraft": 7183,
      "ĠDig": 7184,
      "amber": 7185,
      "Ġpartner": 7186,
      "Ġpassing": 7187,
      "edu": 7188,
      "bra": 7189,
      "otton": 7190,
      "Over": 7191,
      "idance": 7192,
      "Ġrelief": 7193,
      "position": 7194,
      "Ġment": 7195,
      "Ġmountains": 7196,
      "Ġcircle": 7197,
      "Ġdrought": 7198,
      "ritis": 7199,
      "Ġimplications": 7200,
      "Ġbehaviors": 7201,
      "Ġshop": 7202,
      "Ġmm": 7203,
      "Ġprogramming": 7204,
      "ĠSenate": 7205,
      "Ġpolar": 7206,
      "Ġouter": 7207,
      "Ġongoing": 7208,
      "Ġabsence": 7209,
      "Ġquarter": 7210,
      "ostic": 7211,
      "ĠOnline": 7212,
      "ĠZeal": 7213,
      "Ġgradually": 7214,
      "ĠSir": 7215,
      "Ġmicrosc": 7216,
      "],": 7217,
      "ĠConference": 7218,
      "Ear": 7219,
      "Ġsheet": 7220,
      "hyth": 7221,
      "Ġorb": 7222,
      "Ġwrites": 7223,
      "Ġdrain": 7224,
      "Ġinhabit": 7225,
      "Ġprinted": 7226,
      "Ġneuro": 7227,
      "Ġenorm": 7228,
      "Ġsenior": 7229,
      "Ġdesigns": 7230,
      "Ġcav": 7231,
      "Ġputting": 7232,
      "amination": 7233,
      "Ġconfig": 7234,
      "Ġharmful": 7235,
      "ĠRh": 7236,
      "ĠVan": 7237,
      "Ġempt": 7238,
      "abb": 7239,
      "ala": 7240,
      "Ġacids": 7241,
      "mod": 7242,
      "Ġaudience": 7243,
      "EE": 7244,
      "iat": 7245,
      "ĠFrancisco": 7246,
      "Don": 7247,
      "iary": 7248,
      "Ġfed": 7249,
      "Ġexped": 7250,
      "ĠJerusalem": 7251,
      "ĠSand": 7252,
      "Ġserving": 7253,
      "ĠPract": 7254,
      "Ġcolour": 7255,
      "ĠAdd": 7256,
      "Or": 7257,
      "Ġprominent": 7258,
      "Ġusual": 7259,
      "Ġrab": 7260,
      "Ġmeasurement": 7261,
      "Ġbreathing": 7262,
      "ĠProtection": 7263,
      "etary": 7264,
      "Ġinvestigation": 7265,
      "Ġseeking": 7266,
      "ĠJul": 7267,
      "Ġbeings": 7268,
      "Col": 7269,
      "Ġtowns": 7270,
      "Ġcategory": 7271,
      "Ġregarded": 7272,
      "Ġ48": 7273,
      "59": 7274,
      "requ": 7275,
      "Ġfro": 7276,
      "Ġinsulin": 7277,
      "isdom": 7278,
      "ĠIraq": 7279,
      "Ġchest": 7280,
      "Ġstead": 7281,
      "Ġoptim": 7282,
      "Ġ38": 7283,
      "ĠSecretary": 7284,
      "ĠOrganization": 7285,
      "ĠObs": 7286,
      "ĠUp": 7287,
      "Ġmessages": 7288,
      "Ġstatistics": 7289,
      "Ġbattery": 7290,
      "Ġfilter": 7291,
      "ollowing": 7292,
      "John": 7293,
      "rays": 7294,
      "Ġencouraged": 7295,
      "ĠBureau": 7296,
      "Ġinfluenced": 7297,
      "Ġgiant": 7298,
      "ube": 7299,
      "Ġparas": 7300,
      "ĠUt": 7301,
      "ĠPo": 7302,
      "Ġassume": 7303,
      "azing": 7304,
      "Ġevolved": 7305,
      "Ġgrain": 7306,
      "Ġthreatened": 7307,
      "Ġengaged": 7308,
      "issipp": 7309,
      "Ġfinds": 7310,
      "Ġrespectively": 7311,
      "About": 7312,
      "ĠZealand": 7313,
      "Ġequally": 7314,
      "adder": 7315,
      "Ġturning": 7316,
      "ĠStar": 7317,
      "ĠThree": 7318,
      "night": 7319,
      "Ġhazard": 7320,
      "ĠDictionary": 7321,
      "Ġtank": 7322,
      "Ġmanip": 7323,
      "Ġvisitors": 7324,
      "Ġblocks": 7325,
      "iov": 7326,
      "Ġhighlight": 7327,
      "pling": 7328,
      "ĠWho": 7329,
      "Ġcombat": 7330,
      "Ġslave": 7331,
      "Ġholid": 7332,
      "akistan": 7333,
      "Ġconcrete": 7334,
      "Ġscar": 7335,
      "ĠNavy": 7336,
      "Ġhorses": 7337,
      "Ġdomain": 7338,
      "Ġintest": 7339,
      "Ġmoves": 7340,
      "Ġpresents": 7341,
      "Ġlymph": 7342,
      "Ġcreative": 7343,
      "Even": 7344,
      "Ġconnections": 7345,
      "ommod": 7346,
      "Ġtissues": 7347,
      "Ġangle": 7348,
      "58": 7349,
      "Ġdiameter": 7350,
      "Ġelsewhere": 7351,
      "Ġlisten": 7352,
      "Ġaccuracy": 7353,
      "Ġjudge": 7354,
      "ĠConvention": 7355,
      "Ġsuperior": 7356,
      "Ġguard": 7357,
      "thod": 7358,
      "Ġtaste": 7359,
      "Ġvirtual": 7360,
      "Ġshock": 7361,
      "Ġforg": 7362,
      "Ġmining": 7363,
      "Ġsettlement": 7364,
      "Ġcards": 7365,
      ".).": 7366,
      "Ġ;": 7367,
      "ani": 7368,
      "Ġgained": 7369,
      "Go": 7370,
      "Ġplayers": 7371,
      "Ġevaluate": 7372,
      "Ġtight": 7373,
      "Ġvoc": 7374,
      "Ġrice": 7375,
      "ĠBooks": 7376,
      "Ġmechanical": 7377,
      "va": 7378,
      "Ġwarning": 7379,
      "eness": 7380,
      "ĠEst": 7381,
      "ĠThough": 7382,
      "century": 7383,
      "Ġconserv": 7384,
      "Ġskill": 7385,
      "ĠBul": 7386,
      "ĠOper": 7387,
      "Ġbranches": 7388,
      "Ġcompare": 7389,
      "oric": 7390,
      "ĠHy": 7391,
      "Ġcareful": 7392,
      "ude": 7393,
      "Ġalgorith": 7394,
      "Ġfashion": 7395,
      "just": 7396,
      "ĠIV": 7397,
      "reation": 7398,
      "ĠBefore": 7399,
      "ĠGr": 7400,
      "ĠAff": 7401,
      "Ġdamaged": 7402,
      "Ġnerv": 7403,
      "was": 7404,
      "ounter": 7405,
      "sell": 7406,
      "ĠIslands": 7407,
      "raham": 7408,
      "Ġsharp": 7409,
      "ĠHarvard": 7410,
      "2012": 7411,
      "Ġdetected": 7412,
      "rolled": 7413,
      "Ġrose": 7414,
      "sm": 7415,
      "ĠDarwin": 7416,
      "Ġourselves": 7417,
      "Ġroads": 7418,
      "Ġtooth": 7419,
      "ĠCorn": 7420,
      "charge": 7421,
      "sets": 7422,
      "Ġacquired": 7423,
      "rint": 7424,
      "agan": 7425,
      "ptions": 7426,
      "Ġphenomenon": 7427,
      "Ġ33": 7428,
      "ĠIllinois": 7429,
      "yles": 7430,
      "Ġ1930": 7431,
      "ographical": 7432,
      "Ġpeoples": 7433,
      "Ġinn": 7434,
      "Ġneighborhood": 7435,
      "Ġdefend": 7436,
      "making": 7437,
      "vation": 7438,
      "opic": 7439,
      "Ġfabric": 7440,
      "ĠGar": 7441,
      "ENT": 7442,
      "Ġphotos": 7443,
      "Ġadds": 7444,
      "Ġdoi": 7445,
      "Ġrenewable": 7446,
      "HD": 7447,
      "otherapy": 7448,
      "elfare": 7449,
      "Ġviewed": 7450,
      "Ġsurfaces": 7451,
      "Ġbutter": 7452,
      "ĠYear": 7453,
      "ouds": 7454,
      "Ġtaxes": 7455,
      "Ġpreparation": 7456,
      "ĠPolit": 7457,
      "Ġengineers": 7458,
      "Ġseconds": 7459,
      "Ġconcentrations": 7460,
      "ĠPhiladelphia": 7461,
      "Ġadvert": 7462,
      "Ġsettled": 7463,
      "Ġvariation": 7464,
      "Ġcontinuous": 7465,
      "Ġflav": 7466,
      "OM": 7467,
      "Ġwait": 7468,
      "eping": 7469,
      "irth": 7470,
      "Ġpanel": 7471,
      "issippi": 7472,
      "ĠIndust": 7473,
      "Ġbehaviour": 7474,
      "Ġisolated": 7475,
      "Ġdependent": 7476,
      "oured": 7477,
      "ĠHave": 7478,
      "ĠIslamic": 7479,
      "ĠPolicy": 7480,
      "ĠWrit": 7481,
      "Ġfinished": 7482,
      "ĠHawai": 7483,
      "ao": 7484,
      "Ġworship": 7485,
      "ourse": 7486,
      "Ġprovider": 7487,
      "Ġcommunicate": 7488,
      "67": 7489,
      "ĠSafety": 7490,
      "abeth": 7491,
      "63": 7492,
      "Ġcaught": 7493,
      "Ġped": 7494,
      "Ġgap": 7495,
      "Ġwine": 7496,
      "Ġchick": 7497,
      "Ġartist": 7498,
      "Ġcoverage": 7499,
      "ĠChapter": 7500,
      "Ġtemple": 7501,
      "Ġaccompan": 7502,
      "law": 7503,
      "Ġapparently": 7504,
      "enger": 7505,
      "ĠTom": 7506,
      "Ġjur": 7507,
      "Ġles": 7508,
      "Ġheads": 7509,
      "gers": 7510,
      "Ġseat": 7511,
      "Ġlibr": 7512,
      "Ġbringing": 7513,
      "Ġstimul": 7514,
      "Ġgro": 7515,
      "Ġcharacterized": 7516,
      "Ã¢": 7517,
      "aired": 7518,
      "Ġfiber": 7519,
      "Ġcalling": 7520,
      "Ġcollaboration": 7521,
      "ĠLee": 7522,
      "Ġpsychological": 7523,
      "ĠAIDS": 7524,
      "ĠCreat": 7525,
      "rowing": 7526,
      "Ġinflammation": 7527,
      "Ġgases": 7528,
      "ĠSing": 7529,
      "Ġminute": 7530,
      "Ġarray": 7531,
      "itivity": 7532,
      "Ġearn": 7533,
      "trans": 7534,
      "Ġdistricts": 7535,
      "Ġtherap": 7536,
      "Ġemphasis": 7537,
      "Ġbrings": 7538,
      "zheimer": 7539,
      "AB": 7540,
      "Ġfer": 7541,
      "Art": 7542,
      "UR": 7543,
      "Ġkit": 7544,
      "Ġeffectiveness": 7545,
      "inite": 7546,
      "ĠPass": 7547,
      "Ġinfants": 7548,
      "usiness": 7549,
      "Ġinterface": 7550,
      "Ġfulf": 7551,
      "Ġexperimental": 7552,
      "ĠGet": 7553,
      "Ġordinary": 7554,
      "ouri": 7555,
      "Ġduty": 7556,
      "Ġoffering": 7557,
      "98": 7558,
      "ĠCross": 7559,
      "Ġowner": 7560,
      "Ġcounsel": 7561,
      "Ġfalls": 7562,
      "Ġinteractions": 7563,
      "ogether": 7564,
      "Ġhabits": 7565,
      "esides": 7566,
      "Ġtribes": 7567,
      "Ġversions": 7568,
      "athered": 7569,
      "lymp": 7570,
      "Ġcancers": 7571,
      "ĠPen": 7572,
      "Ġreliable": 7573,
      "Ġartificial": 7574,
      "Ġsevent": 7575,
      "opher": 7576,
      "Pre": 7577,
      "ĠHand": 7578,
      "Ġjump": 7579,
      "Ġexpanded": 7580,
      "Ġchlor": 7581,
      "Ġerrors": 7582,
      "Â®": 7583,
      "Ġwriters": 7584,
      "ĠSar": 7585,
      "emb": 7586,
      "Ġfarming": 7587,
      "ĠEqu": 7588,
      "Ġspectrum": 7589,
      "uma": 7590,
      "Ġengines": 7591,
      "Ġcontributed": 7592,
      "Ġdramatic": 7593,
      "Ġvel": 7594,
      "Ġplain": 7595,
      "Ġargued": 7596,
      "ĠAcc": 7597,
      "Ġcharged": 7598,
      "Ġusage": 7599,
      "Ġsteam": 7600,
      "otal": 7601,
      "Ġpy": 7602,
      "Ġchannel": 7603,
      "ĠNote": 7604,
      "Ġcorner": 7605,
      "Ġmissing": 7606,
      "Ġcomplicated": 7607,
      "Ġautism": 7608,
      "Ġasking": 7609,
      "ĠPot": 7610,
      "pled": 7611,
      "ĠNon": 7612,
      "Ġacute": 7613,
      "Ġfunctional": 7614,
      "Ġnose": 7615,
      "ĠLy": 7616,
      "mann": 7617,
      "Ġseparated": 7618,
      "ĠWal": 7619,
      "haust": 7620,
      "Ġvan": 7621,
      "Ġhosp": 7622,
      "Ġclothing": 7623,
      "Let": 7624,
      "Ġcommunications": 7625,
      "Ġracial": 7626,
      "ĠCentre": 7627,
      "otyp": 7628,
      "Ġbatt": 7629,
      "ĠLos": 7630,
      "Today": 7631,
      "Ġimplemented": 7632,
      "ĠOpen": 7633,
      "Ġtransp": 7634,
      "Ġobservation": 7635,
      "Ġestablishment": 7636,
      "ailability": 7637,
      "ĠJo": 7638,
      "Ġdiscrimination": 7639,
      "Ġdisabilities": 7640,
      "Ġextend": 7641,
      "Ġye": 7642,
      "Su": 7643,
      "hea": 7644,
      "Ġheavily": 7645,
      "Comm": 7646,
      "foot": 7647,
      "Ġfellow": 7648,
      "Ġaccessible": 7649,
      "Ġpointed": 7650,
      "ĠBattle": 7651,
      "achers": 7652,
      "Ġgram": 7653,
      "Ġsatisf": 7654,
      "Ġmyst": 7655,
      "ixture": 7656,
      "occ": 7657,
      "Ġstuff": 7658,
      "ologic": 7659,
      "ĠFar": 7660,
      "Ġdates": 7661,
      "Ġarguments": 7662,
      "vin": 7663,
      "oids": 7664,
      "ĠHistorical": 7665,
      "Ġchair": 7666,
      "Ġspin": 7667,
      "Ġrealize": 7668,
      "ĠCurrent": 7669,
      "Ġassumed": 7670,
      "ĠCreek": 7671,
      "ĠKar": 7672,
      "ĠFair": 7673,
      "Ġsettings": 7674,
      "Ġorders": 7675,
      "ĠEr": 7676,
      "CA": 7677,
      "Ġvariables": 7678,
      "aneous": 7679,
      "ĠLiter": 7680,
      "Ġstatements": 7681,
      "ĠPakistan": 7682,
      "aints": 7683,
      "Ġimaging": 7684,
      "ĠChristianity": 7685,
      "Ġcourts": 7686,
      "Ġconfidence": 7687,
      "Ġcharacteristic": 7688,
      "ieval": 7689,
      "ilation": 7690,
      "Ġentit": 7691,
      "ĠPlant": 7692,
      "Ġofficer": 7693,
      "Ġseg": 7694,
      "Ġnitrogen": 7695,
      "Ġremoval": 7696,
      "Ġbond": 7697,
      "ĠLow": 7698,
      "ami": 7699,
      "writ": 7700,
      "Ġbegun": 7701,
      "Ġmothers": 7702,
      "2010": 7703,
      "National": 7704,
      "Ġdefinite": 7705,
      "Ġton": 7706,
      "Ġmathematical": 7707,
      "ĠMethod": 7708,
      "thritis": 7709,
      "icious": 7710,
      "ruption": 7711,
      "Ġplayer": 7712,
      "Ġbeneficial": 7713,
      "Once": 7714,
      "ĠSometimes": 7715,
      "Ġevolutionary": 7716,
      "Ġserves": 7717,
      "ĠHeritage": 7718,
      "elve": 7719,
      "soft": 7720,
      "icted": 7721,
      "vi": 7722,
      "ĠFire": 7723,
      "angle": 7724,
      "Ġbuff": 7725,
      "Ġindustries": 7726,
      "Ġbath": 7727,
      "ĠStr": 7728,
      "ĠColl": 7729,
      "quit": 7730,
      "ĠMississippi": 7731,
      "Ġmedicines": 7732,
      "Ġrational": 7733,
      "Ġsession": 7734,
      "ĠFred": 7735,
      "ĠEdward": 7736,
      "Ġdriven": 7737,
      "uten": 7738,
      "ĠAuthor": 7739,
      "Ġkilling": 7740,
      "Ġvisited": 7741,
      "Ġdemands": 7742,
      "oding": 7743,
      "Ġcriminal": 7744,
      "icular": 7745,
      "53": 7746,
      "ensed": 7747,
      "Ġresearcher": 7748,
      "Ġitem": 7749,
      "Ġtargets": 7750,
      "rite": 7751,
      "ildren": 7752,
      "thodox": 7753,
      "olt": 7754,
      "Ġepis": 7755,
      "ĠAgriculture": 7756,
      "aneously": 7757,
      "Ġflows": 7758,
      "Ġburied": 7759,
      "ĠHeart": 7760,
      "Ġmir": 7761,
      "Ġexhibit": 7762,
      "Ġcup": 7763,
      "regon": 7764,
      "Ġformula": 7765,
      "%.": 7766,
      "Ġidentification": 7767,
      "ĠGall": 7768,
      "Ġalph": 7769,
      "Ġoccurring": 7770,
      "sue": 7771,
      "Ġholes": 7772,
      "ditionally": 7773,
      "omed": 7774,
      "Ġbrows": 7775,
      "ĠPy": 7776,
      "ĠLo": 7777,
      "Ġchemistry": 7778,
      "ĠDC": 7779,
      "Ġpreventing": 7780,
      "arents": 7781,
      "ĠEU": 7782,
      "Ġconj": 7783,
      "idity": 7784,
      "ĠStan": 7785,
      "ĠEngineering": 7786,
      "Ġcalories": 7787,
      "iti": 7788,
      "Ġfunded": 7789,
      "ĠSpirit": 7790,
      "Ġupdated": 7791,
      "Ġmg": 7792,
      "Ġbless": 7793,
      "Per": 7794,
      "2008": 7795,
      "Ġindigenous": 7796,
      "ups": 7797,
      "Ġcats": 7798,
      "Ġinfect": 7799,
      "Ġargue": 7800,
      "endment": 7801,
      "Lear": 7802,
      "Ġtranslation": 7803,
      "Ġaccommod": 7804,
      "ĠOl": 7805,
      "Part": 7806,
      "Ġnewspaper": 7807,
      "Ġcompens": 7808,
      "Ġconsideration": 7809,
      "Ġrepair": 7810,
      "icy": 7811,
      "iability": 7812,
      "Ġdifficulties": 7813,
      "Ġoldest": 7814,
      "ĠCast": 7815,
      "Ġaddressed": 7816,
      "amine": 7817,
      "Ġinitially": 7818,
      "Hist": 7819,
      "Ġshore": 7820,
      "HA": 7821,
      "zer": 7822,
      "Ġradical": 7823,
      "izabeth": 7824,
      "Ġdesert": 7825,
      "Ġowned": 7826,
      "atively": 7827,
      "Ġdesired": 7828,
      "fts": 7829,
      "raining": 7830,
      "Ġ1988": 7831,
      "Ġphotographs": 7832,
      "Ġvegetation": 7833,
      "erly": 7834,
      "Ġagent": 7835,
      "Ġtrends": 7836,
      "ĠAP": 7837,
      "bel": 7838,
      "Ġfacing": 7839,
      "56": 7840,
      "ĠNever": 7841,
      "kl": 7842,
      "Ġhunting": 7843,
      "Ġtea": 7844,
      "ĠSection": 7845,
      "Ġspecified": 7846,
      "Ġdescript": 7847,
      "mers": 7848,
      "Ġmeal": 7849,
      "EF": 7850,
      "ĠOlymp": 7851,
      "Ġnervous": 7852,
      "ackson": 7853,
      "Ġvoltage": 7854,
      "Ġchap": 7855,
      "Ġboost": 7856,
      "Ġfeedback": 7857,
      "Ġlifestyle": 7858,
      "Ġchurches": 7859,
      "Ġsched": 7860,
      "Ġwheat": 7861,
      "Ġdraft": 7862,
      "ĠLew": 7863,
      "Ġreveal": 7864,
      "ĠAlzheimer": 7865,
      "itual": 7866,
      "Ġmaintaining": 7867,
      "NS": 7868,
      "Ġoutcome": 7869,
      "Ġstores": 7870,
      "Ġcovering": 7871,
      "Ġteams": 7872,
      "Ġcouncil": 7873,
      "hent": 7874,
      "Ġpersonnel": 7875,
      "ĠHim": 7876,
      "Ġrely": 7877,
      "ĠMaterial": 7878,
      "Ġglucose": 7879,
      "Ġsurge": 7880,
      "ĠKansas": 7881,
      "ĠWord": 7882,
      "Car": 7883,
      "Ġobserve": 7884,
      "BM": 7885,
      "Ġexecutive": 7886,
      "Ġprovin": 7887,
      "regation": 7888,
      "Ġtraditions": 7889,
      "Ġrect": 7890,
      "Ġguidance": 7891,
      "ĠCub": 7892,
      "ĠNob": 7893,
      "ĠJustice": 7894,
      "orig": 7895,
      "nee": 7896,
      "2009": 7897,
      "Ġflour": 7898,
      "Ġfarms": 7899,
      "Ġdealing": 7900,
      "otype": 7901,
      "urning": 7902,
      "plete": 7903,
      "Ġintern": 7904,
      "hyd": 7905,
      "riday": 7906,
      "ĠDespite": 7907,
      "ĠMah": 7908,
      "Ġdecreased": 7909,
      "after": 7910,
      "ĠUr": 7911,
      "People": 7912,
      "TH": 7913,
      "ĠDutch": 7914,
      "bean": 7915,
      "Ġworst": 7916,
      "ba": 7917,
      "Ġmusical": 7918,
      "Ġmineral": 7919,
      "Ġsmooth": 7920,
      "52": 7921,
      "Ġcommitment": 7922,
      "ogy": 7923,
      "Ġbeauty": 7924,
      "Ġlogic": 7925,
      "ĠHor": 7926,
      "apor": 7927,
      "ghan": 7928,
      "owed": 7929,
      "Ġcontribution": 7930,
      "Ġglac": 7931,
      "Ġinformed": 7932,
      "Ġvirtually": 7933,
      "Ġprovince": 7934,
      "real": 7935,
      "Ġhormone": 7936,
      "Ġinternet": 7937,
      "eh": 7938,
      "Ġpreserve": 7939,
      "rection": 7940,
      "ĠKorea": 7941,
      "ols": 7942,
      "Ġgravity": 7943,
      "rical": 7944,
      "Ġstronger": 7945,
      "Ġdetection": 7946,
      "asant": 7947,
      "ĠFinally": 7948,
      "Ġ1940": 7949,
      "Ġchromos": 7950,
      "Ġhardware": 7951,
      "Ref": 7952,
      "ĠScotland": 7953,
      "Ġmeasuring": 7954,
      "western": 7955,
      "Ġvariations": 7956,
      "Ġremarkable": 7957,
      "ĠTri": 7958,
      "being": 7959,
      "ĠMaryland": 7960,
      "PL": 7961,
      "una": 7962,
      "Ġmine": 7963,
      "Ġfavorite": 7964,
      "eries": 7965,
      "ĠForm": 7966,
      "Ġantibiotics": 7967,
      "Ġforming": 7968,
      "Ġenormous": 7969,
      "yer": 7970,
      "Ġtreating": 7971,
      "Ġstopped": 7972,
      "this": 7973,
      "DS": 7974,
      "ĠAssess": 7975,
      "kind": 7976,
      "Ġcarb": 7977,
      "Ġbelieves": 7978,
      "Ġcontinuing": 7979,
      "Ġachievement": 7980,
      "ĠAntar": 7981,
      "Ġfaculty": 7982,
      "Ġfought": 7983,
      "oul": 7984,
      "Ġthanks": 7985,
      "quir": 7986,
      "chen": 7987,
      "Ġlaser": 7988,
      "Ġpilot": 7989,
      "Ġconstantly": 7990,
      "Ġpit": 7991,
      "ĠAlexander": 7992,
      "ĠWorks": 7993,
      "Ġ34": 7994,
      "Ġthereby": 7995,
      ".:": 7996,
      "Ġaged": 7997,
      "Ġecosystems": 7998,
      "Ġcooling": 7999,
      "ĠKent": 8000,
      "Ġmoderate": 8001,
      "Ġexisted": 8002,
      "ifferent": 8003,
      "endar": 8004,
      "ricane": 8005,
      "ĠSpring": 8006,
      "Ġcorrel": 8007,
      "ĠRoad": 8008,
      "Ġ39": 8009,
      "Ġlungs": 8010,
      "Ġflying": 8011,
      "Ġforget": 8012,
      "Ġ1920": 8013,
      "ĠSaint": 8014,
      "Ġreporting": 8015,
      "zona": 8016,
      "uscript": 8017,
      "ricted": 8018,
      "uther": 8019,
      "zone": 8020,
      "rooms": 8021,
      "ĠAL": 8022,
      "ventions": 8023,
      "Ġcopper": 8024,
      "you": 8025,
      "ivest": 8026,
      "ĠMid": 8027,
      "ĠCam": 8028,
      "Ġevident": 8029,
      "ĠPoint": 8030,
      "print": 8031,
      "Ġlights": 8032,
      "Ġpin": 8033,
      "ĠOrig": 8034,
      "61": 8035,
      "Ġcoffee": 8036,
      "Ġtables": 8037,
      "Ġliteracy": 8038,
      "Ġesc": 8039,
      "Ġearthquake": 8040,
      "Ġillegal": 8041,
      "about": 8042,
      "Ġimagine": 8043,
      "Ġrepresentation": 8044,
      "Ġurine": 8045,
      "Ġheating": 8046,
      "ĠParliament": 8047,
      "Ġintent": 8048,
      "rot": 8049,
      "ĠFigure": 8050,
      "olving": 8051,
      "Ġsales": 8052,
      "Ġvictory": 8053,
      "Ġgrid": 8054,
      "Ġatoms": 8055,
      "Ġmoisture": 8056,
      "OP": 8057,
      "stant": 8058,
      "2007": 8059,
      "Source": 8060,
      "Ġanalys": 8061,
      ")||": 8062,
      "zo": 8063,
      "Ġtumors": 8064,
      "Ġcontents": 8065,
      "Ġsmart": 8066,
      "Ġliterary": 8067,
      "ĠWay": 8068,
      "Ġeliminate": 8069,
      "Ġmarks": 8070,
      "Ġoverw": 8071,
      "Ġquantum": 8072,
      "anger": 8073,
      "ĠMissouri": 8074,
      "Ġirrig": 8075,
      "Ġdemocracy": 8076,
      "Ġreaching": 8077,
      "Ġeru": 8078,
      "ĠChristmas": 8079,
      "Ġoccupied": 8080,
      "Ġaccord": 8081,
      "Ġproven": 8082,
      "istant": 8083,
      "Ġinfluenza": 8084,
      "Ġfet": 8085,
      "ĠMult": 8086,
      "onym": 8087,
      "ĠQuest": 8088,
      "Ġlowest": 8089,
      "Ġthr": 8090,
      "Ġtheme": 8091,
      "Ġembry": 8092,
      "uan": 8093,
      "ĠIce": 8094,
      "Ġfuels": 8095,
      "Ġtob": 8096,
      "ĠSystems": 8097,
      "also": 8098,
      "Ġcollections": 8099,
      "Every": 8100,
      "Ġcomplications": 8101,
      "ĠDO": 8102,
      "Ġreferences": 8103,
      "iop": 8104,
      "Ġcolonial": 8105,
      "Ġsocieties": 8106,
      "coming": 8107,
      "ĠJr": 8108,
      "ĠChief": 8109,
      "Ġalive": 8110,
      "ĠAlaska": 8111,
      "Ġintensity": 8112,
      "Ã¤": 8113,
      "Ġreef": 8114,
      "Ġbreath": 8115,
      "Ġgraduate": 8116,
      "Ġreasonable": 8117,
      "Sc": 8118,
      "ĠLittle": 8119,
      "ician": 8120,
      "Ġboat": 8121,
      "Ġappeal": 8122,
      "ĠSunday": 8123,
      "Ġtor": 8124,
      "iture": 8125,
      "Ġarmed": 8126,
      "Ġgeomet": 8127,
      "ĠDie": 8128,
      "Ġthread": 8129,
      "Ġinteractive": 8130,
      "ĠField": 8131,
      "airy": 8132,
      "Ġnom": 8133,
      "ivestock": 8134,
      "Ġfocuses": 8135,
      "Ġinitiative": 8136,
      "Ġresid": 8137,
      "Ġfung": 8138,
      "Ġrefused": 8139,
      "ĠModern": 8140,
      "Ġdecor": 8141,
      "Ġplot": 8142,
      "IF": 8143,
      "Ġprecip": 8144,
      "Ġvarieties": 8145,
      "Ġlosses": 8146,
      "Rep": 8147,
      "Ġ55": 8148,
      "Ġclar": 8149,
      "Â©": 8150,
      "Ġabstract": 8151,
      "She": 8152,
      "Ġexploration": 8153,
      "Ġexhaust": 8154,
      "archy": 8155,
      "Ġtemporary": 8156,
      "Ġwinds": 8157,
      "Ġdisk": 8158,
      "Ġven": 8159,
      "Ġimprovements": 8160,
      "âĢĻ.": 8161,
      "âĢĺ": 8162,
      "ulpt": 8163,
      "Ġremind": 8164,
      "Ġroyal": 8165,
      "Ġshoot": 8166,
      "ailing": 8167,
      "Ġrecover": 8168,
      "claim": 8169,
      "ĠMarine": 8170,
      "ĠBush": 8171,
      "forest": 8172,
      "Ġconsidering": 8173,
      "Ġgrounds": 8174,
      "itarian": 8175,
      "ĠNO": 8176,
      "ĠOregon": 8177,
      "Ġadvis": 8178,
      "Ġextension": 8179,
      "books": 8180,
      "Ġstreams": 8181,
      "ĠCard": 8182,
      "Ġfaced": 8183,
      "Ġ1986": 8184,
      "nesota": 8185,
      "through": 8186,
      "ĠFed": 8187,
      "ustain": 8188,
      "dule": 8189,
      "ĠCapt": 8190,
      "ĠBack": 8191,
      "outheast": 8192,
      "Ġrelax": 8193,
      "Ġanywhere": 8194,
      "Ġthreats": 8195,
      "ontal": 8196,
      "Ġadverse": 8197,
      "ĠAT": 8198,
      "ĠAgain": 8199,
      "Post": 8200,
      "Ġunw": 8201,
      "ĠPortug": 8202,
      "ĠDrug": 8203,
      "ugg": 8204,
      "ĠTestament": 8205,
      "Ġuniform": 8206,
      "Ġeveryday": 8207,
      "Ġreduces": 8208,
      "Ġphosph": 8209,
      "Ġsciences": 8210,
      "Ġecological": 8211,
      "hire": 8212,
      "Ġft": 8213,
      "lected": 8214,
      "Ġevening": 8215,
      "onday": 8216,
      "Ġneutral": 8217,
      "Ġuniversities": 8218,
      "ĠHit": 8219,
      "ĠSign": 8220,
      "Ġdivine": 8221,
      "Ġpsychology": 8222,
      "Ġroles": 8223,
      "ĠLight": 8224,
      "ĠQueen": 8225,
      "Ġcreatures": 8226,
      "Ġtobacco": 8227,
      "Ġ37": 8228,
      "borne": 8229,
      "Ġdropped": 8230,
      "Ġheaven": 8231,
      "Ġassemb": 8232,
      "ĠLead": 8233,
      "iger": 8234,
      "Ġhence": 8235,
      "operative": 8236,
      "Ġpursu": 8237,
      "mm": 8238,
      "Ġinspired": 8239,
      "2006": 8240,
      "ĠMuslims": 8241,
      "Ġquantity": 8242,
      "aret": 8243,
      "Ġminerals": 8244,
      "Ġstrike": 8245,
      "Ġspoken": 8246,
      "Ġreward": 8247,
      "Click": 8248,
      "icity": 8249,
      "ĠâĢ¢": 8250,
      "Ġspons": 8251,
      "eting": 8252,
      "Ġsimult": 8253,
      "Ġtransmitted": 8254,
      "Ġcas": 8255,
      "gence": 8256,
      "Ġclassical": 8257,
      "ĠCa": 8258,
      "ĠSimilar": 8259,
      "Ġconclus": 8260,
      "Ġbrand": 8261,
      "Ġtempor": 8262,
      "ĠHT": 8263,
      "62": 8264,
      "ĠPur": 8265,
      "Ġflower": 8266,
      "Ġoccas": 8267,
      "Ġdirections": 8268,
      "ĠHom": 8269,
      "Ġsuscept": 8270,
      "Ġvertical": 8271,
      "health": 8272,
      "Ġstreets": 8273,
      "ĠSeveral": 8274,
      "Health": 8275,
      "ĠContin": 8276,
      "vernment": 8277,
      "ecess": 8278,
      "Ġcolonies": 8279,
      "Ġinterior": 8280,
      "Ġcopies": 8281,
      "Ġampl": 8282,
      "2000": 8283,
      "ĠMax": 8284,
      "Ġmaybe": 8285,
      "ĠType": 8286,
      "Ġdism": 8287,
      "ceans": 8288,
      "ĠMoreover": 8289,
      "unicipal": 8290,
      "2005": 8291,
      "abulary": 8292,
      "Ġfalling": 8293,
      "arks": 8294,
      "Ġwindows": 8295,
      "Ġscores": 8296,
      "Ġclock": 8297,
      "asts": 8298,
      "teb": 8299,
      "Ġhouseholds": 8300,
      "ĠCP": 8301,
      "Ġadvent": 8302,
      "Ġflash": 8303,
      "Ġessay": 8304,
      "Ġstood": 8305,
      "aming": 8306,
      "Ġstructural": 8307,
      ".),": 8308,
      "ĠVietnam": 8309,
      "chnology": 8310,
      "Ġsaved": 8311,
      "Ġmagazine": 8312,
      "HS": 8313,
      "Ġnotion": 8314,
      "App": 8315,
      "ĠJackson": 8316,
      "ĠTake": 8317,
      "Ġsacred": 8318,
      "ĠVolume": 8319,
      "Ġphrase": 8320,
      "Ġcord": 8321,
      "Ġmigration": 8322,
      "Ġdynamic": 8323,
      "ĠElizabeth": 8324,
      "ĠDaniel": 8325,
      "itory": 8326,
      "ogs": 8327,
      "Ġritual": 8328,
      "ĠEconomic": 8329,
      "Ġ1987": 8330,
      "ĠMur": 8331,
      "Ġregulation": 8332,
      "2011": 8333,
      "enced": 8334,
      "Ġfix": 8335,
      "Ġassociate": 8336,
      "hedule": 8337,
      "Ġbeat": 8338,
      "Ġincident": 8339,
      "Ġpropag": 8340,
      "Ġwheel": 8341,
      "Ġcontributions": 8342,
      "Ġtut": 8343,
      "oca": 8344,
      "ieve": 8345,
      "ĠBa": 8346,
      "ĠAbraham": 8347,
      "Ġworry": 8348,
      "ĠStation": 8349,
      "irms": 8350,
      "Ġwars": 8351,
      "rav": 8352,
      "Ġpromise": 8353,
      "RS": 8354,
      "Ġstrengthen": 8355,
      "Ġviolent": 8356,
      "Ġsons": 8357,
      "ĠFact": 8358,
      "ocument": 8359,
      "atus": 8360,
      "ĠStandard": 8361,
      "umer": 8362,
      "Ġbiodiversity": 8363,
      "essions": 8364,
      "Ġrespiratory": 8365,
      "UC": 8366,
      "Ġhall": 8367,
      "Ġkingdom": 8368,
      "ĠIndepend": 8369,
      "Ġaimed": 8370,
      "54": 8371,
      "ĠColon": 8372,
      "Ġheritage": 8373,
      "Ġdys": 8374,
      "ĠIndeed": 8375,
      "Ġcooperation": 8376,
      "Ġreviewed": 8377,
      "ĠCat": 8378,
      "Ġscore": 8379,
      "ĠAndrew": 8380,
      "ĠJefferson": 8381,
      "51": 8382,
      "ĠAlbert": 8383,
      "hus": 8384,
      "Ġcotton": 8385,
      "Ġobjectives": 8386,
      "neum": 8387,
      "Ġexcessive": 8388,
      "Ġdesignated": 8389,
      "Ġwing": 8390,
      "Ġconvin": 8391,
      "sis": 8392,
      "cin": 8393,
      "rox": 8394,
      "ĠFind": 8395,
      "idal": 8396,
      "ĠLess": 8397,
      "Ġmammals": 8398,
      "Ġcooking": 8399,
      "Ġautomatically": 8400,
      "iological": 8401,
      "Ġfest": 8402,
      "Ġplenty": 8403,
      "ĠJacob": 8404,
      "Scient": 8405,
      "Ġperception": 8406,
      "Ġprotecting": 8407,
      "Ġconverted": 8408,
      "ĠHead": 8409,
      "Ġherb": 8410,
      "UT": 8411,
      "cking": 8412,
      "Ġminority": 8413,
      "action": 8414,
      "Ġathlet": 8415,
      "Back": 8416,
      "ĠTable": 8417,
      "Ġdefault": 8418,
      "Ġhabitats": 8419,
      "olk": 8420,
      "ifice": 8421,
      "Ġirrit": 8422,
      "Ġpione": 8423,
      "Ġparticle": 8424,
      "Ġbigger": 8425,
      "amps": 8426,
      "ĠEmer": 8427,
      "ranean": 8428,
      "Ġsport": 8429,
      "text": 8430,
      "Ġbibl": 8431,
      "oded": 8432,
      "Ġexplicit": 8433,
      "CP": 8434,
      "acent": 8435,
      "Ġimmigrants": 8436,
      "Ġcorresponding": 8437,
      "ĠArizona": 8438,
      "Ġendangered": 8439,
      "Ġdistant": 8440,
      "Ġincidence": 8441,
      "ali": 8442,
      "Ġbears": 8443,
      "Ġdescend": 8444,
      "Ġavailability": 8445,
      "Ġwisdom": 8446,
      "MA": 8447,
      "Ġexercises": 8448,
      "ĠCop": 8449,
      "Ġidentifying": 8450,
      "Ġpup": 8451,
      "57": 8452,
      "ĠSym": 8453,
      "Ġknowing": 8454,
      "ĠAngeles": 8455,
      "EA": 8456,
      "Ġmanufacturers": 8457,
      "ĠWilson": 8458,
      "Ġdies": 8459,
      "thew": 8460,
      "Ġconsciousness": 8461,
      "Ġclouds": 8462,
      "Ġadolesc": 8463,
      "ĠMinnesota": 8464,
      "ĠWikipedia": 8465,
      "Ġspaces": 8466,
      "Ġdispos": 8467,
      "ĠImm": 8468,
      "uits": 8469,
      "neys": 8470,
      "ĠFurthermore": 8471,
      "ĠFish": 8472,
      "ati": 8473,
      "isd": 8474,
      "Ġassembly": 8475,
      "ptic": 8476,
      "Ġentitled": 8477,
      "play": 8478,
      "ĠCorps": 8479,
      "Ġbag": 8480,
      "ologically": 8481,
      "Ġgenome": 8482,
      "run": 8483,
      "Ġgirl": 8484,
      "Ġmouse": 8485,
      "Ġpriority": 8486,
      "Ġlens": 8487,
      "Ġprey": 8488,
      "wan": 8489,
      "ĠFace": 8490,
      "Ġannually": 8491,
      "ĠEll": 8492,
      "Ġstones": 8493,
      "atial": 8494,
      "Ġdiag": 8495,
      "agnetic": 8496,
      "Ġpreserved": 8497,
      "uled": 8498,
      "Ġsup": 8499,
      "ropri": 8500,
      "Ġboundaries": 8501,
      "Ġattempted": 8502,
      "onents": 8503,
      "Ġdegrad": 8504,
      "Ġcab": 8505,
      "sem": 8506,
      "rh": 8507,
      "Two": 8508,
      "Ġminister": 8509,
      "Ġdetermining": 8510,
      "Ġaccompanied": 8511,
      "Ġ)": 8512,
      "Ġgrows": 8513,
      "imensional": 8514,
      "Ġdevast": 8515,
      "Ġcolony": 8516,
      "rive": 8517,
      "Ġattribut": 8518,
      "Ġquiet": 8519,
      "Ġpreferred": 8520,
      "Ġcensus": 8521,
      "ĠAssembly": 8522,
      "Ġadapted": 8523,
      "ĠAllah": 8524,
      "Ġmagnitude": 8525,
      "Ġaudio": 8526,
      "86": 8527,
      "Ġsitting": 8528,
      "orters": 8529,
      "sub": 8530,
      "Ġhyb": 8531,
      "Ġtrem": 8532,
      "Ġdisability": 8533,
      "Ġrecip": 8534,
      "imp": 8535,
      "CR": 8536,
      "Ġnice": 8537,
      "Ġlabour": 8538,
      "utation": 8539,
      "Ġstrain": 8540,
      "hemistry": 8541,
      "Ġfinger": 8542,
      "Ġhidden": 8543,
      "Ġidentical": 8544,
      "ĠCentury": 8545,
      "uber": 8546,
      "Ġranging": 8547,
      "Ġprayer": 8548,
      "Ġrepresentative": 8549,
      "Ġsulf": 8550,
      "ĠPhilipp": 8551,
      "Ġspoke": 8552,
      "Ġgathered": 8553,
      "Ġreadily": 8554,
      "aning": 8555,
      "Ġsplit": 8556,
      "Ġsoph": 8557,
      "Ġscope": 8558,
      "Ġdense": 8559,
      "ĠCA": 8560,
      "riend": 8561,
      "ico": 8562,
      "ĠMexican": 8563,
      "92": 8564,
      "Ge": 8565,
      "Ġweakness": 8566,
      "ĠClick": 8567,
      "enter": 8568,
      "Ġempty": 8569,
      "Ġhypothesis": 8570,
      "ceedings": 8571,
      "Ġresc": 8572,
      "ĠID": 8573,
      "Ġmixture": 8574,
      "ga": 8575,
      "ruit": 8576,
      "irus": 8577,
      "Ġcort": 8578,
      "ocity": 8579,
      "96": 8580,
      "Ġcow": 8581,
      "ells": 8582,
      "Ġtrigger": 8583,
      "Ġwaiting": 8584,
      "Ġdominant": 8585,
      "Ġpoetry": 8586,
      "ĠAsk": 8587,
      "Ġreserv": 8588,
      "Rel": 8589,
      "thur": 8590,
      "owa": 8591,
      "Ġsummary": 8592,
      "Ġom": 8593,
      "ĠMA": 8594,
      "ĠPope": 8595,
      "ifer": 8596,
      "Ġinvention": 8597,
      "Ġemerging": 8598,
      "psy": 8599,
      "Ġelections": 8600,
      "Ġshapes": 8601,
      "ĠWilliams": 8602,
      "Ġunem": 8603,
      "Ġvs": 8604,
      "ĠPhot": 8605,
      "Ġacknowled": 8606,
      "rape": 8607,
      "Ġvaccines": 8608,
      "Ġmercury": 8609,
      "Ġsupplements": 8610,
      "ĠArea": 8611,
      "Ġinhabitants": 8612,
      "Ġprotective": 8613,
      "roc": 8614,
      "har": 8615,
      "Ġraising": 8616,
      "Ġprogramme": 8617,
      "made": 8618,
      "97": 8619,
      "Ġthirty": 8620,
      ",'": 8621,
      "Ġmetabol": 8622,
      "Ġaddresses": 8623,
      "Ġhat": 8624,
      "Copyright": 8625,
      "Ġatmospheric": 8626,
      "ĠIns": 8627,
      "Ġrh": 8628,
      "rene": 8629,
      "gon": 8630,
      "Ġbreed": 8631,
      "ĠSanta": 8632,
      "ubble": 8633,
      "Ġcustomers": 8634,
      "Ġregardless": 8635,
      "Ġsect": 8636,
      "Ġ978": 8637,
      "Ġpurchased": 8638,
      "Ġteens": 8639,
      "ĠDoes": 8640,
      "ĠSS": 8641,
      "ĠRelig": 8642,
      "Ġgent": 8643,
      "awn": 8644,
      "Ġaims": 8645,
      "ĠEss": 8646,
      "Ġaffecting": 8647,
      "ĠGovernor": 8648,
      "Ġcompound": 8649,
      "Ġprobability": 8650,
      "ropol": 8651,
      "Ġthermal": 8652,
      "asm": 8653,
      "Ġsediment": 8654,
      "ĠLater": 8655,
      "page": 8656,
      "Ġsoils": 8657,
      "ials": 8658,
      "Ġfatal": 8659,
      "ĠBang": 8660,
      "ĠTenn": 8661,
      "Ġcompos": 8662,
      "Ġcandidate": 8663,
      "Ġhappening": 8664,
      "Sm": 8665,
      "Ġguess": 8666,
      "bes": 8667,
      "Ġcub": 8668,
      "Ġlakes": 8669,
      "Eng": 8670,
      "ĠMinistry": 8671,
      "Ġreturns": 8672,
      "Ġdress": 8673,
      "800": 8674,
      "Ġreign": 8675,
      "Ġrepresenting": 8676,
      "Ġtens": 8677,
      "ador": 8678,
      "Mar": 8679,
      "Ġparad": 8680,
      "Ġbare": 8681,
      "scrib": 8682,
      "ĠSpecies": 8683,
      "lete": 8684,
      "ysical": 8685,
      "ĠRail": 8686,
      "Ġ1985": 8687,
      "Ġash": 8688,
      "Ġclient": 8689,
      "2004": 8690,
      "Ġhal": 8691,
      "Ġdeeper": 8692,
      "Ġmeteor": 8693,
      "anted": 8694,
      "erts": 8695,
      "Ġprime": 8696,
      "ĠEs": 8697,
      "ĠCheck": 8698,
      "Ġoccasionally": 8699,
      "mond": 8700,
      "ĠCode": 8701,
      "Ġsubsid": 8702,
      "Ġdistinction": 8703,
      "Ġfaces": 8704,
      "Ġtip": 8705,
      "Ġcure": 8706,
      "obile": 8707,
      "ĠUnfortunately": 8708,
      "ĠWithout": 8709,
      "ĠTown": 8710,
      "Inf": 8711,
      "Ġclassified": 8712,
      "Ġdiarr": 8713,
      "Ġrealized": 8714,
      "iscons": 8715,
      "da": 8716,
      "Ġsoy": 8717,
      "aren": 8718,
      "Ġpollut": 8719,
      "à¤": 8720,
      "Ġfifth": 8721,
      "Ġtransplant": 8722,
      "Ĥ¬": 8723,
      "oked": 8724,
      "Ġproviders": 8725,
      "Ġbleeding": 8726,
      "ometer": 8727,
      "ĠCDC": 8728,
      "Ġdisplayed": 8729,
      "imensions": 8730,
      "Ġreverse": 8731,
      "ila": 8732,
      "Ġposted": 8733,
      "Ġwelfare": 8734,
      "Ġfires": 8735,
      "Ġforecast": 8736,
      "Ġoverwhel": 8737,
      "ĠHa": 8738,
      "asy": 8739,
      "Ġ42": 8740,
      "Ġaster": 8741,
      "Ġspr": 8742,
      "Researchers": 8743,
      "Ġhumanity": 8744,
      "Ġfur": 8745,
      "isconsin": 8746,
      "ĠSon": 8747,
      "unar": 8748,
      "ĠArts": 8749,
      "Ġsculpt": 8750,
      "Ġorigins": 8751,
      "ĠHitler": 8752,
      "non": 8753,
      "Ġoptical": 8754,
      "Ġdriver": 8755,
      "ĠLook": 8756,
      "Ġclub": 8757,
      "Ġmovie": 8758,
      "Ġentering": 8759,
      "Ġbene": 8760,
      "Ġlob": 8761,
      "ighth": 8762,
      "Ġstability": 8763,
      "olph": 8764,
      "Ġeducators": 8765,
      "ĠMess": 8766,
      "Ġinvolvement": 8767,
      "Ġanticip": 8768,
      "Ġtong": 8769,
      "Ġbroadcast": 8770,
      "Sim": 8771,
      "asma": 8772,
      "unct": 8773,
      "Ġsurprised": 8774,
      "EG": 8775,
      "section": 8776,
      "Ġbutton": 8777,
      "III": 8778,
      "Ġcalculated": 8779,
      "Ġmissions": 8780,
      "Ġfra": 8781,
      "Ġweigh": 8782,
      "issance": 8783,
      "Ġattitude": 8784,
      "emeter": 8785,
      "adow": 8786,
      "Ġvot": 8787,
      "itzer": 8788,
      "Ġunp": 8789,
      "Ġdietary": 8790,
      "aven": 8791,
      "ĠAst": 8792,
      "Ġabandoned": 8793,
      "sex": 8794,
      "Under": 8795,
      "gener": 8796,
      "Ġproposal": 8797,
      "omatic": 8798,
      "opl": 8799,
      "Ġcomprom": 8800,
      "Ġemerged": 8801,
      "Ġunlikely": 8802,
      "ĠAction": 8803,
      "iovascular": 8804,
      "Ġovercome": 8805,
      "Ġreflected": 8806,
      "MP": 8807,
      "Ġinvasion": 8808,
      "Cons": 8809,
      "Ġadvantages": 8810,
      "oli": 8811,
      "ĠBu": 8812,
      "ĠOffic": 8813,
      "Ġdiscussions": 8814,
      "Ġ120": 8815,
      "Ġmeetings": 8816,
      "oys": 8817,
      "Ġpartly": 8818,
      "Ġtort": 8819,
      "di": 8820,
      "Ġfing": 8821,
      "Ġconversation": 8822,
      "87": 8823,
      "Ġsunlight": 8824,
      "Ġmanifest": 8825,
      "ĠImp": 8826,
      "Ġhospitals": 8827,
      "inent": 8828,
      "green": 8829,
      "Ġstrange": 8830,
      "Ġdoctrine": 8831,
      "Ġdiffer": 8832,
      "Ġseriously": 8833,
      "ĠFDA": 8834,
      "OD": 8835,
      "ĠMountain": 8836,
      "esh": 8837,
      "Ġdict": 8838,
      "ĠJersey": 8839,
      "Ġlanding": 8840,
      "ĠLast": 8841,
      "apped": 8842,
      "Ġdance": 8843,
      "ersonal": 8844,
      "Ġmanager": 8845,
      "ĠCirc": 8846,
      "Ġdecay": 8847,
      "ĠEgyptian": 8848,
      "Ġbacterial": 8849,
      "Ġoperated": 8850,
      "Ġcheap": 8851,
      "Ġbeneath": 8852,
      "Ġlivestock": 8853,
      "Ġmosquit": 8854,
      "Ġhealthcare": 8855,
      ".âĢĻ": 8856,
      "Ġacting": 8857,
      "UL": 8858,
      "Ġbehavioral": 8859,
      "rose": 8860,
      "Ġaffairs": 8861,
      "ĠDev": 8862,
      "shaped": 8863,
      "ĠBlue": 8864,
      "ĠBiology": 8865,
      "Ġprivile": 8866,
      "Ġgods": 8867,
      "Ġtill": 8868,
      "Ġvig": 8869,
      "Ġingredients": 8870,
      "Ġpert": 8871,
      "Ġgrains": 8872,
      "ĠPeace": 8873,
      "rity": 8874,
      "Ġlifetime": 8875,
      "Ġblo": 8876,
      "Ġcul": 8877,
      "Ġlinear": 8878,
      "they": 8879,
      "ĠGreece": 8880,
      "type": 8881,
      "Ġgast": 8882,
      "Ġequation": 8883,
      "Ġversus": 8884,
      "profit": 8885,
      "ĠSolar": 8886,
      "vals": 8887,
      "Ġloose": 8888,
      "oline": 8889,
      "oons": 8890,
      "ohyd": 8891,
      "Ġprofit": 8892,
      "Ã±": 8893,
      "Ġmig": 8894,
      "ĠAfghan": 8895,
      "ĠCrit": 8896,
      "Ġvolunteers": 8897,
      "amples": 8898,
      "ymes": 8899,
      "quarters": 8900,
      "Ġtechnological": 8901,
      "Ġchose": 8902,
      "Ġmature": 8903,
      "Ġregistered": 8904,
      "Ġdeer": 8905,
      "Ġsuspect": 8906,
      "ĠReference": 8907,
      "Ġdisrupt": 8908,
      "ĠBern": 8909,
      "iography": 8910,
      "Ġmood": 8911,
      "agraph": 8912,
      "ĠPu": 8913,
      "Ġcorrectly": 8914,
      "Ġpredicted": 8915,
      "Ġmanuscript": 8916,
      "!\"": 8917,
      "ĠFriday": 8918,
      "ĠKeep": 8919,
      "Ġpairs": 8920,
      "Ne": 8921,
      "Ġhopes": 8922,
      "ĠSus": 8923,
      "ĠMedia": 8924,
      "rue": 8925,
      "2003": 8926,
      "Ġtreaty": 8927,
      "ocated": 8928,
      "box": 8929,
      "Ġdipl": 8930,
      "ĠStandards": 8931,
      "ĠHo": 8932,
      "SP": 8933,
      "ĠIndones": 8934,
      "rons": 8935,
      "Where": 8936,
      "bell": 8937,
      "ĠTemple": 8938,
      "Ġcelebrated": 8939,
      "Ġtrace": 8940,
      "ĠSqu": 8941,
      "piration": 8942,
      "Ġconsumed": 8943,
      "ĠBuilding": 8944,
      "Ġuncle": 8945,
      "Ġsovere": 8946,
      "Ġ95": 8947,
      "ospel": 8948,
      "Ġutility": 8949,
      "world": 8950,
      "Ġconversion": 8951,
      "ĠMajor": 8952,
      "Ġcomputing": 8953,
      "leton": 8954,
      "ĠDam": 8955,
      ".]": 8956,
      "Ġvaries": 8957,
      "ĠTO": 8958,
      "Ġloved": 8959,
      "lav": 8960,
      "Ġdoses": 8961,
      "who": 8962,
      "Ġjudgment": 8963,
      "imm": 8964,
      "door": 8965,
      "iterranean": 8966,
      "Ġwat": 8967,
      "Ġreplacement": 8968,
      "ais": 8969,
      "Ġrhyth": 8970,
      "âĢĻ,": 8971,
      "Ġrestore": 8972,
      "Ġphilos": 8973,
      "ĠLewis": 8974,
      "ĠDown": 8975,
      "ĠNY": 8976,
      "ĠFarm": 8977,
      "Ġultimate": 8978,
      "Ġcapabilities": 8979,
      "ĠClinical": 8980,
      "Ġsymbols": 8981,
      "ĠAR": 8982,
      "ĠArchives": 8983,
      "Ġsees": 8984,
      "Ġsurg": 8985,
      "93": 8986,
      "Ġwings": 8987,
      "Ġsale": 8988,
      "Ġinvestigate": 8989,
      "uclear": 8990,
      "cia": 8991,
      "angel": 8992,
      "ĠPerhaps": 8993,
      "Ġdocumented": 8994,
      "Ġexciting": 8995,
      "rix": 8996,
      "Ġresemb": 8997,
      "Ġlip": 8998,
      "Ġlogical": 8999,
      "itamin": 9000,
      "ĠWed": 9001,
      "Ġ`": 9002,
      "Ġhoney": 9003,
      "itic": 9004,
      "GE": 9005,
      "olves": 9006,
      "Ġremed": 9007,
      "aternal": 9008,
      "Ġcraft": 9009,
      "rait": 9010,
      "Ġsuddenly": 9011,
      "ĠRam": 9012,
      "Ġrequirement": 9013,
      "ĠSud": 9014,
      "onal": 9015,
      "bury": 9016,
      "Ġvillages": 9017,
      "Ġtick": 9018,
      "Ġmerch": 9019,
      "Ġsensitivity": 9020,
      "Sub": 9021,
      "Ġproductivity": 9022,
      "ĠLinux": 9023,
      "2001": 9024,
      "amins": 9025,
      "ublished": 9026,
      "ĠIsa": 9027,
      "Ġcoc": 9028,
      "ĠModel": 9029,
      "ĠMcC": 9030,
      "Ġdimin": 9031,
      "Ġburned": 9032,
      "Ġregime": 9033,
      "Ġlighting": 9034,
      "300": 9035,
      "Ġincent": 9036,
      "aware": 9037,
      "ĠMoses": 9038,
      "nedy": 9039,
      "ĠView": 9040,
      "Each": 9041,
      "Sec": 9042,
      "Ġkilometers": 9043,
      "Ġmigr": 9044,
      "Ġdinosa": 9045,
      "Ġruled": 9046,
      "Ġancestors": 9047,
      "Ġconvert": 9048,
      "Ġincom": 9049,
      "Ġrequiring": 9050,
      "irable": 9051,
      "ĠDavis": 9052,
      "ref": 9053,
      "Ġinch": 9054,
      "Ġextraord": 9055,
      "Ġdeeply": 9056,
      "Ġreaches": 9057,
      "Ġtransferred": 9058,
      "olds": 9059,
      "enh": 9060,
      "atories": 9061,
      "ĠTurk": 9062,
      "abs": 9063,
      "Ġsister": 9064,
      "ĠIdent": 9065,
      "Ġprisoners": 9066,
      "athan": 9067,
      "anol": 9068,
      "Ġliberal": 9069,
      "Ġtom": 9070,
      "ĠCT": 9071,
      "Ġsurveys": 9072,
      "Gl": 9073,
      "Ġgrades": 9074,
      "ois": 9075,
      "Ġsizes": 9076,
      "Ġtelling": 9077,
      "Ġ1945": 9078,
      "Ġpasses": 9079,
      "Ġtranslated": 9080,
      "Ġholy": 9081,
      "Ġshed": 9082,
      "ĠDemocratic": 9083,
      "pow": 9084,
      "Ġspray": 9085,
      "Ġ44": 9086,
      "Ġsurvived": 9087,
      "Ġscholar": 9088,
      "Just": 9089,
      "zes": 9090,
      "Ġsavings": 9091,
      "ĠCorpor": 9092,
      "Ġunderground": 9093,
      "ĠMarsh": 9094,
      "Ġwatching": 9095,
      "Ġinnovative": 9096,
      "Ġcomfortable": 9097,
      "awa": 9098,
      "ĠSmall": 9099,
      "GS": 9100,
      "Ġdramatically": 9101,
      "bec": 9102,
      "ieth": 9103,
      "Also": 9104,
      "Ġscheme": 9105,
      "etically": 9106,
      "Ġembra": 9107,
      "Ġquantities": 9108,
      "Ġobst": 9109,
      "Ġrobot": 9110,
      "Ġdistinguish": 9111,
      "ĠOtt": 9112,
      "Ġlock": 9113,
      "Ġsodium": 9114,
      "aka": 9115,
      "Ġminds": 9116,
      "Ġmile": 9117,
      "Ġauthent": 9118,
      "ĠWisconsin": 9119,
      "Ġwithdraw": 9120,
      "Ġconsequence": 9121,
      "Ġgovernor": 9122,
      "Ġrestoration": 9123,
      "Ġmanual": 9124,
      "Ġwonderful": 9125,
      "isting": 9126,
      "words": 9127,
      "Ġliterally": 9128,
      "Ġ~": 9129,
      "Ġmarg": 9130,
      "Ġadvances": 9131,
      "Ġrevers": 9132,
      "zyme": 9133,
      "rob": 9134,
      "ĠWales": 9135,
      "inates": 9136,
      "Ġreveals": 9137,
      "Ġbroke": 9138,
      "Ġrestricted": 9139,
      "Ġintegration": 9140,
      "Ġpoem": 9141,
      "ught": 9142,
      "eller": 9143,
      "ĠCensus": 9144,
      "Ġattach": 9145,
      "Jan": 9146,
      "Ġpermitted": 9147,
      "Ġclassic": 9148,
      "Ġ1984": 9149,
      "ĠAnalysis": 9150,
      "Ġadministrative": 9151,
      "ĠText": 9152,
      "Ġsongs": 9153,
      "iph": 9154,
      "Ġparameters": 9155,
      "Get": 9156,
      "ĠOcc": 9157,
      "ĠNeg": 9158,
      "uesday": 9159,
      "attered": 9160,
      "Ġwouldn": 9161,
      "Tra": 9162,
      "Ġsubt": 9163,
      "Ġcamps": 9164,
      "Ġaggressive": 9165,
      "istence": 9166,
      "ursday": 9167,
      "Before": 9168,
      "Ġvalley": 9169,
      "azon": 9170,
      "Ġpale": 9171,
      "lights": 9172,
      "Ġinsight": 9173,
      "Ġdeposits": 9174,
      "Ġtwelve": 9175,
      "Ġprofound": 9176,
      "Ġelementary": 9177,
      "Ġamazing": 9178,
      "Ġcash": 9179,
      "ĠHur": 9180,
      "Ġconstra": 9181,
      "Ġemotions": 9182,
      "ema": 9183,
      "Ġho": 9184,
      "Ġanthrop": 9185,
      "aping": 9186,
      "velt": 9187,
      "Ġschedule": 9188,
      "ideo": 9189,
      "dep": 9190,
      "ifier": 9191,
      "Then": 9192,
      "Ġpromoting": 9193,
      "Ġshaped": 9194,
      "%,": 9195,
      "Ġmyself": 9196,
      "Ġgalaxies": 9197,
      "ĠPhilosoph": 9198,
      "rank": 9199,
      "Ġpersonality": 9200,
      "Ġfunctioning": 9201,
      "cut": 9202,
      "Ġoffices": 9203,
      "Ġcough": 9204,
      "Ġtact": 9205,
      "iations": 9206,
      "ineteenth": 9207,
      "Ġpeer": 9208,
      "Ġprocessed": 9209,
      "CI": 9210,
      "Ġbees": 9211,
      "Ġvaried": 9212,
      "Ġelectrons": 9213,
      "ĠArticle": 9214,
      "Ġstruck": 9215,
      "Ġerect": 9216,
      "Ġspinal": 9217,
      "pany": 9218,
      "Ġplanting": 9219,
      "ĠBerlin": 9220,
      "Ġspecialized": 9221,
      "ĠFil": 9222,
      "Using": 9223,
      "Ġchallenging": 9224,
      "Ġrainfall": 9225,
      "2002": 9226,
      "Ġflexible": 9227,
      "ogenic": 9228,
      "ĠStart": 9229,
      "Ġsaving": 9230,
      "Ġmetals": 9231,
      "aws": 9232,
      "Ġcomplexity": 9233,
      "rub": 9234,
      "igue": 9235,
      "Ġrestrictions": 9236,
      "Ġprinting": 9237,
      "ĠPrinci": 9238,
      "iously": 9239,
      "Ġcuts": 9240,
      "ĠÐ": 9241,
      "Ġunn": 9242,
      "Ġpenet": 9243,
      "ceeding": 9244,
      "Ġ600": 9245,
      "Ġintroduce": 9246,
      "OW": 9247,
      "Ġ250": 9248,
      "ĠÂ·": 9249,
      "91": 9250,
      "ĠInstit": 9251,
      "ĠProtest": 9252,
[...]
